/* Weight6: */
00001e13
ffffd166
ffffd8cf
ffffcb60
fffffcb6
000026de
0000368a
ffffb981
0000340d
ffffe3cb
000003b6
0000091d
00001dd0
00001dff
fffffbd3
ffffe60f
ffffd9e5
ffffe5e0
0000063d
00000e27
00002655
ffffeed2
00002532
fffff833
000011b8
00002e7b
ffffe86a
0000043b
ffffcd16
ffffcafb
00003dbc
00000f3c
0000312f
fffffe85
ffffdb79
ffffe398
ffffd457
0000517e
ffffd372
0000135d
ffffd263
00003245
ffffddb4
fffff815
00002424
00001b3b
00001742
00002516
0000088e
00001d4a
ffffe04f
ffffcbfc
ffffc7b1
fffff5cf
fffff4b1
ffffd6ce
000045ed
00000311
fffffe2e
fffff38c
00000a2d
ffffd0f2
0000121f
00001a99
ffffd419
ffffda57
000019fd
00001d46
ffffd9b0
0000336c
00000d78
00001a8e
00003447
00001877
00000a62
00001d83
ffffe971
fffffbf5
00001ba3
ffffe5c4
000021d6
ffffd8ee
00000f95
ffffe4c3
ffffe126
ffffdd96
ffffdd58
fffff56d
fffff9c7
fffff724
fffffeb3
ffffeb86
ffffd1e0
00000b24
ffffca8b
fffffea9
ffffe8ff
ffffda11
00000ed3
00000dd4
00003a77
00001cfd
00002950
00003cd4
ffffdcee
ffffd82c
0000252a
ffffd5b6
fffff454
ffffe568
0000247e
ffffda8c
00003350
00002bbd
00002d6e
ffffe58a
fffff680
fffff03a
ffffcf2e
ffffebe8
00005d57
00002034
fffff945
000009f8
00001c3c
ffffc41f
000003db
fffff6dc
000014c1
0000067c
00001e6d
ffffcaed
ffffeea0
ffffe665
000041e3
00001065
00000b7e
00000d2c
ffffdf40
00002553
fffff0de
fffff579
fffff51b
ffffe334
00003336
000017f8
00000209
00000ff0
fffff3c8
ffffee29
00004d18
ffffe48c
fffff2cb
00000020
000026ae
fffffa8b
fffff43b
ffffc7a4
00002a97
00000e8a
00001037
fffff7f7
000000dd
00002f2c
ffffd03b
ffffdc88
ffffdcac
ffffe037
ffffd402
ffffcc9a
00003fca
ffffca9c
ffffdff3
ffffdeb4
ffffe5ce
00003375
00000c88
00004b32
ffffea60
ffffb74b
ffffcaa5
ffffe77e
000024cb
00001855
ffffdcde
00000c21
00001c43
fffffdef
00003696
000035e8
00003ddd
ffffe7c7
ffffd227
000017a3
0000336c
00000420
ffffda87
ffffc6f7
00001112
00000916
fffffd23
ffffd89a
ffffdc8b
ffffe628
fffff8fc
fffff521
ffffc941
0000256d
000011f9
0000039e
ffffddaa
fffffd0c
00000fb3
ffffd93a
ffffde39
ffffe763
ffffd7c8
00003157
ffffd83d
fffff42b
fffff5d0
00002cdb
ffffec05
0000083e
00003e6b
000006c2
000014fc
fffffc97
fffffdb4
000017be
fffffbc3
fffff83f
ffffebeb
00002986
00000c7b
ffffd251
ffffceac
fffff7a1
00000803
fffff410
ffffea1a
00001df9
ffffc397
ffffe510
00003c36
ffffd8a0
00002729
000023e3
00002f0e
000027b9
ffffcf00
0000031d
000021eb
00000415
ffffcc91
000030dc
00003442
ffffe49e
00002fb1
00000630
fffffe4f
ffffd527
fffff623
00001821
00001bc2
00003291
ffffda8b
00002fc2
fffffafc
fffff243
fffff7e0
00001b97
ffffca5d
fffff8c3
000008af
0000269d
00002144
fffff4aa
00002a9e
00000d93
fffff8dc
fffff606
ffffd1b2
00000ad4
000036c5
ffffcad6
fffff11b
000019e9
00002373
ffffe9fb
ffffda46
ffffffc4
000030ec
ffffda67
ffffcfa1
fffff847
fffff1ce
ffffdac6
ffffe6ec
00003450
0000416b
ffffe684
00004d44
00000c6c
ffffe78a
ffffd120
00003b1b
ffffebcd
fffff515
fffff57c
fffff597
ffffdaca
ffffc285
ffffe3b0
ffffd685
fffff7a5
ffffd31e
ffffc846
ffffc993
00002192
000007dc
000029da
ffffe9e3
fffff410
00002b17
fffff939
ffffe062
ffffc9e6
000027be
ffffff79
ffffe568
00003251
000029fd
fffffa9e
00001711
ffffe3f7
00004132
00000eeb
fffff1ac
ffffc477
ffffd2bd
00000bc8
ffffbdcf
00001d63
000023bd
00002cd6
ffffc91e
000004dd
000022f9
0000313c
fffff4cf
00001333
ffffd5a3
fffff757
0000011d
00002c1b
0000294c
ffffd4ca
ffffd6c7
00001fbd
00002fdc
ffffd4c5
fffff4d9
00001f1b
ffffd690
00000950
000006c4
000015f8
00001124
ffffde5c
00000bec
0000274b
00000d4f
fffff79b
00001027
0000105c
00002ae5
fffff92a
0000224b
ffffe8dd
000037f1
ffffdba0
ffffda13
ffffd0f1
ffffe4c5
000033d8
ffffecd0
ffffed76
00003261
00000f78
ffffcbf7
ffffc3dd
ffffce55
ffffcd27
000036c3
00001e0e
fffffd36
ffffd0b8
ffffceca
ffffe521
000013a1
ffffeadb
000045b3
0000200d
00000c2d
ffffd7f8
00002696
00000b43
00001181
00000b51
ffffcf54
ffffecf9
0000092a
000022de
0000163a
ffffd867
ffffdfab
00003082
ffffe9cc
00002dab
ffffe8db
00001fe4
ffffe627
00002dbe
00003098
fffff3aa
fffffaba
ffffe630
fffff497
0000143c
ffffd901
ffffe830
ffffe83b
00000e9e
00002df1
000007fa
000008cb
00003c32
fffffb10
000023fc
00001e48
ffffe9c8
ffffec11
ffffe498
0000183d
00003fb0
00002086
ffffedf1
ffffee5f
000016f5
0000053f
ffffebed
000007d5
00002ae3
ffffe30c
ffffea66
ffffe6b5
ffffe80d
ffffe8d5
ffffeb0f
00000502
00004aa2
ffffff3b
fffff7b8
ffffe290
ffffcd38
fffff2e5
0000133d
00000e66
00002536
fffff739
00003730
0000424f
ffffe863
000019a7
ffffdd47
ffffc8c3
00002190
fffffaf8
ffffef67
ffffc72c
00000590
000024b0
ffffe9ba
000031bf
ffffe361
0000183c
00003384
00000b5f
00004da0
00002067
00000f0e
00000588
00000874
ffffd730
000030c8
fffff066
000024d6
000014f0
00003a38
0000252a
00000829
00001479
ffffeec9
fffffb67
00001018
00000bcb
ffffdc60
00000b25
ffffe869
0000032a
ffffe2ba
00001515
ffffe700
00000431
000015bb
fffff945
ffffc8e0
000012c2
fffff129
00001449
fffff642
ffffeb61
fffff74e
ffffdd00
000025b2
00002917
0000240e
ffffcd2b
000043c2
ffffd5e9
ffffd415
00003299
0000123f
fffffad5
00001aa7
ffffcd33
fffff430
00001687
fffff0c2
000026c8
00000fa2
ffffe53b
ffffe180
fffff3e3
ffffc405
00004e8e
ffffbda7
ffffe78c
ffffc93c
000012f0
000022ce
fffff6e2
ffffef7a
ffffc681
0000368a
0000236b
ffffb867
0000479c
ffffd5fd
0000021c
00002016
00001587
ffffde90
fffff9e7
00001a64
0000246c
000022b2
00002a91
ffffdb7d
00001685
00001134
00001aa5
ffffd8e6
ffffd5c9
000024dc
00003060
ffffc461
fffff089
ffffea17
00002fa7
ffffc0d6
00002808
0000299c
0000308a
0000051c
ffffdf9e
00002410
000029d3
00001eaf
ffffe707
00001c17
ffffe88f
000004df
ffffcaab
0000079a
ffffd120
000010f9
fffffd36
fffffadf
000009a1
00003141
ffffeb16
00005154
fffff747
fffffc3e
ffffdeaa
00001406
000027b3
ffffeec7
ffffe7c5
00002e5f
0000084f
ffffe8bb
ffffc006
ffffe0eb
00001a12
00001643
000034c4
ffffeedf
ffffea97
ffffd339
000029fd
fffff3b6
fffff07e
00002db7
ffffc800
ffffdb4b
ffffde5c
ffffe564
ffffe6ad
ffffce1d
0000245d
ffffd649
fffffcbe
ffffc8fd
ffffe0c9
fffff170
ffffd61d
ffffc876
000014aa
fffff2a2
0000023d
000006ff
ffffd073
000032f6
ffffcc07
fffff94d
00001ddb
00000d11
ffffd48a
00003479
00001a93
000006c8
00001875
000000cc
fffff4df
ffffdf32
00001c75
0000014b
000049d9
0000054f
fffffb2f
000040d1
00001af0
ffffe6a5
ffffd767
ffffe89d
0000166d
fffff2f8
fffff7ac
00002284
ffffe01b
000017f7
ffffee69
00002573
0000212d
ffffefa9
fffffc13
fffff973
00002e96
ffffcef4
ffffdf86
0000124e
ffffdb19
fffff0cb
00001cc7
fffff840
ffffd215
00002923
00000307
00001b35
ffffd83d
fffff359
fffff78c
00002303
00000e34
ffffe097
ffffe03b
00001c5e
0000328f
00003ca6
ffffe320
ffffe91d
fffffcd1
fffff646
000039cd
ffffc773
fffffd60
0000005f
ffffe78f
ffffe145
fffffcf5
0000163c
00000d9c
ffffd5e2
000003c9
00000036
fffffda8
ffffcb31
00002081
00002dc6
ffffd470
00004116
ffffe7f2
000015e8
ffffd572
fffff5bd
ffffdc99
fffffcbc
00000bcd
ffffd7fa
00000a0e
000041ba
fffff6d0
ffffd56c
00000e9c
ffffd896
00001cbd
fffff119
000007dd
00002602
00002278
fffff344
000006b0
ffffcdee
ffffe20a
fffff6a8
000025d0
0000287c
ffffeafc
000010fd
0000144d
00004654
00001456
000011e0
ffffe942
ffffc587
ffffc50d
ffffdf2a
ffffce0a
00001d09
fffffcf3
ffffd6bb
0000092c
00000a93
00003678
000026e2
00003470
fffff1a0
00001c16
00002ea1
0000425e
ffffda1b
ffffe4ab
0000096a
000008ef
0000271a
00001232
ffffe7d7
ffffd15d
ffffd310
ffffd0e7
00001b9f
fffff8ca
0000050f
ffffff4e
ffffe9be
ffffede8
fffff91f
000023f8
ffffd251
fffffca7
00000022
00002f62
fffff471
0000188c
ffffce2f
fffff05a
00001b76
ffffcb79
ffffc9e0
00001dad
00001eb9
00002582
000017c7
fffff7d2
ffffd0e1
000017e7
ffffcc5a
00001641
00001910
00002bef
000029ed
000008ff
ffffbbd1
00003d31
ffffd48d
ffffee71
fffff7b7
ffffe715
0000134d
fffff383
0000466c
ffffd76e
00001578
ffffbe4c
00002fe9
00001d28
ffffd6a0
00000238
ffffbea2
ffffe186
ffffd06c
ffffdd80
0000172c
000001e6
ffffd9e4
fffff63b
00001f99
000014b2
fffff975
00000323
0000057b
ffffcf0e
000038cf
00003927
00001688
ffffc953
00001d91
ffffd192
00002227
00003582
ffffda95
ffffcd0a
000024c0
ffffd53e
ffffec2e
000013d8
ffffd476
00000ce0
ffffef51
00002863
000013f7
fffff80b
ffffcfa2
00002eed
00002b89
00002bb3
ffffdbdf
000024d0
00000f4a
fffffc72
00000f29
00002630
00003b1a
00001b9e
00003732
00000d78
fffff536
fffff096
0000056b
ffffee88
00003278
ffffff30
ffffcd47
ffffe161
fffff5f0
00001be6
00000e27
00002bed
ffffba4a
ffffd43b
ffffe0c3
000011ef
000028e5
ffffc4ea
0000248f
00001808
000010b2
00002039
00000abd
0000079c
000017b1
ffffd673
00002bbe
fffffa15
00000467
00002f4e
ffffeb5c
ffffd58c
fffff774
ffffe505
00002516
0000370e
ffffe0ae
ffffbf15
0000260e
0000201c
00004a05
00003206
ffffcaab
000023fd
00002e16
ffffe777
fffff3c9
fffff1bf
00002bf3
00001c2a
00002c45
00002d1a
ffffec0f
ffffd884
00001429
ffffeb2e
ffffdbf7
ffffff96
000005cb
000025c0
ffffd039
00002920
00001092
ffffd2d3
00003139
ffffc93f
00000eed
ffffd4f0
00001b51
00002791
fffff5e3
ffffd894
fffff45a
00001fec
00002ae7
00000cb2
00001a19
fffff87e
000012e5
00002070
fffffaeb
00000365
0000147e
00003148
00002b45
ffffce13
0000284b
00002b85
000025da
ffffe56d
ffffe88e
00002768
ffffeb16
ffffecc2
00001ff4
00000d25
00002efa
ffffe734
0000215a
ffffd894
000031b3
ffffd0c6
fffffcc9
ffffc798
00001359
ffffd9ef
ffffe7ef
00003712
ffffc413
fffff766
ffffd89c
ffffd2a8
ffffe022
00002f64
000002d8
00002803
ffffd945
fffff2b3
000024a2
00002871
0000328b
ffffd944
00002d29
fffff60f
ffffdac1
0000537a
00002bee
000027ac
00000c0f
ffffd2f8
0000284c
00002f53
00002a65
00001a17
000014a4
00003b5d
00000534
fffff7a5
ffffdc1e
00000082
0000089c
ffffc6b0
00002141
000047a3
00001d26
fffff686
ffffd3cb
ffffe62e
000016a3
00002187
ffffff36
000015a4
00003af0
000022fe
00002de8
fffffba2
00002192
fffff821
ffffec5b
00001827
00001269
ffffe9d2
00000aeb
ffffd90a
000017ba
fffff9aa
00001344
00001c25
ffffe64a
00000a26
000024c0
00003386
0000033a
ffffd793
00002cd6
0000204c
ffffd8a5
00000646
00001e93
00002e01
00000c91
00005638
fffffa31
00003173
ffffe12f
000039b9
ffffe5fb
000029b8
fffff8a5
000024f1
fffffc93
0000278a
00001dd8
0000139a
ffffe0f3
ffffcaad
00003372
ffffcc66
00002d0a
ffffcd39
ffffea58
ffffcf65
ffffd455
0000233f
00002467
00002acd
fffff6ba
fffff257
ffffd502
00000525
000008bb
ffffdbf9
00001a47
000024a5
ffffdb7d
00000b07
ffffd685
ffffee63
00000d3a
0000196b
0000263d
00002961
ffffe823
ffffe90f
ffffedc6
00002f1a
fffffe2e
ffffdce6
ffffef52
000020e4
ffffca2b
ffffceaf
ffffdaec
fffff1ca
00000527
ffffda7e
00001082
00000a69
ffffdeaf
00000253
000017fa
ffffd43c
00001231
fffffc62
fffff6df
00000044
000020bf
fffffd20
000047c5
0000169f
00002f01
000050c3
00002ed3
000012e0
fffff7e7
fffffe8a
ffffe9b6
000001bf
ffffcddd
ffffd2d4
ffffcc62
0000225f
ffffe250
ffffd1c3
ffffe15b
00001824
00001bf1
00001a5d
ffffdccc
00001e3d
fffff2cd
000010dc
00004ac7
ffffd143
00003a0a
fffffcef
00002b68
ffffe54d
00000238
ffffe634
ffffead3
ffffdc41
00001f88
00000742
ffffd0a0
000001d6
fffffcf8
fffff0fe
ffffcf30
0000286f
000020a5
ffffe928
000008ce
000023b3
ffffcdee
ffffd21b
ffffe1e9
ffffdf0d
00002273
00002931
ffffe79e
ffffe568
fffff510
00001f2b
ffffdfce
000014fa
00001f8b
00001df5
fffff19a
fffffe6f
00001ee8
00001e34
000012b0
00002afa
0000299f
fffffb32
00003708
ffffe132
000006c0
00002ad5
fffffb80
