/* Weight5: */
00000317
000001c8
fffff732
ffffffc2
fffff7aa
000002be
fffffeac
fffffe1d
00000a80
fffffb18
000002e2
fffffe10
fffff78d
000003ba
00000249
fffff4f9
000002e8
00000197
fffff76d
000007a3
fffff7df
fffff87e
fffff6aa
fffffe67
000002d9
000002db
fffff563
000005ed
fffff647
00000853
fffff994
fffff672
ffffff57
000000f9
0000039d
0000067f
fffff81f
fffffdb1
00000036
fffffa81
00000152
fffffcc8
0000097f
000003ce
000001ce
000004dc
ffffff91
0000029d
fffffdd3
0000014a
00000527
00000985
fffffcad
fffff714
fffff996
fffff54f
fffffa6a
fffffc85
ffffffa4
fffff910
00000291
000007c1
00000412
fffff6e3
00000565
fffffa4a
fffff63d
fffffbff
fffffedc
fffffa72
000006b2
ffffffd8
00000222
fffff8e7
000008d3
fffffb47
fffffbe5
0000040a
0000051d
fffff829
ffffff70
000009b3
00000150
000008da
00000393
0000078d
0000002b
00000274
fffff9b6
fffffc8f
fffffa19
000003a4
000004fc
fffffede
fffffa61
00000ac2
fffff5c3
fffff7da
fffffb76
000005e5
fffffc6f
000002d7
00000a08
fffff648
fffff6a8
fffffcf2
fffff5c4
000005dc
fffffe57
fffffc6d
0000098e
fffff93d
fffffa0a
00000278
fffffe7e
000000cd
000009de
000002c3
fffffe2b
fffff824
fffff6f1
0000053a
0000010e
00000923
0000069b
00000161
0000012a
0000049e
fffff726
fffffe76
00000436
fffffa32
000009aa
00000271
00000489
000007c9
fffffa26
00000436
fffff820
00000339
00000987
0000047b
fffff42a
fffffa07
000004f4
00000199
fffffd20
fffff886
000005f1
000005e6
00000199
fffff583
fffffb59
0000022d
ffffff3e
fffffcd7
00000329
0000082a
00000037
000005bb
00000573
00000799
fffffac9
00000007
00000741
fffffecf
000008b1
fffff8b3
fffff85f
000001f9
fffff97e
fffff5f6
fffff4ea
00000127
fffff86c
00000875
0000067d
fffff63c
0000075e
fffff8dc
00000794
fffff9d1
fffff6be
000009eb
fffffb61
00000971
000000e8
fffffd17
00000961
fffff938
fffffbfe
fffff507
00000774
fffffa59
0000028d
fffffeca
fffff65b
fffffa2e
fffff6ac
fffffd17
00000687
00000901
fffffd16
00000a78
fffffa5a
fffffe6c
fffffafc
0000052e
000000ea
0000069b
fffffde7
000002b7
0000090f
0000026c
fffff6c7
fffffe61
fffffcf7
fffff9fa
00000302
fffff5bb
fffffe23
ffffff97
00000818
00000573
fffff880
ffffff9b
0000064a
00000aa4
0000090f
000003d6
00000118
000006a4
fffffdf2
000000f4
fffffa38
00000952
fffff65a
fffffa45
0000004b
fffffaba
000000b6
fffff99c
00000796
fffff5c5
0000050f
00000414
000005d8
fffff949
0000010a
fffffb3a
fffffec3
00000040
0000033f
fffffe30
0000062e
0000093e
ffffffe7
000005ee
ffffff48
fffff8c5
fffffe63
ffffff88
ffffff76
00000220
00000151
00000898
fffff7c4
00000061
fffffa3f
00000a36
000001ac
fffffc8a
00000bcd
fffffe18
000003d5
fffffe6e
fffffa91
fffffb67
000000d1
00000256
000001f4
00000b9f
000008c8
fffffea6
fffffb06
00000a84
fffff90e
00000682
fffff9e7
ffffff6d
0000023e
00000855
000005e9
ffffffca
000008b7
fffffe5f
000001b9
fffff7c4
000006b7
fffffffa
000006f7
0000074c
00000450
fffff776
0000055d
000003fa
ffffff95
fffff98a
0000044d
fffffff7
00000456
fffff6da
fffffca8
0000045e
000003d9
fffff78f
0000028a
0000011a
000003ad
fffffa15
fffff8e7
000005ae
fffffe44
0000098a
00000144
0000014d
fffffcd1
ffffff8a
0000043e
00000295
fffffa25
00000675
00000143
fffff58d
000005ff
ffffff94
00000a36
fffffff8
fffff69f
fffffb3a
000006fc
00000802
fffffd9d
0000054b
fffffefa
ffffff2d
fffff665
ffffff0d
0000008b
00000814
00000482
fffffa3f
00000078
00000aba
fffff855
fffff9f5
fffff862
fffff66f
fffffc32
0000030f
fffffa0e
fffffea8
fffffc8a
0000097f
fffffefd
fffff97c
fffff7c6
00000686
fffff7ec
fffffa57
fffff833
fffff977
0000003f
0000070d
fffff873
0000039b
00000155
000003fb
fffff662
0000071f
fffffec0
000003e4
ffffff0f
fffff92f
fffffcb2
00000868
00000910
00000641
fffffdd1
fffffb42
fffff6e3
00000a64
fffff791
000002fa
fffffa95
00000338
0000003a
fffffb06
00000687
0000025c
00000844
00000485
00000250
fffff87c
fffff67b
0000016c
fffffd0f
0000077b
fffff84f
0000007a
000006e8
fffff68f
000000e8
fffffd9f
0000076c
000000ba
fffffe55
00000011
000005ae
fffff600
00000b66
0000099f
fffff66f
00000517
fffff6e1
fffffeb0
fffffd3c
fffff933
000006bf
fffff8e0
fffffc70
fffff93b
0000053e
000004a5
fffff8ac
fffffaf0
fffffbfb
00000027
00000801
fffffe9f
ffffff87
00000561
fffffa0d
fffffe81
fffffb91
000004ac
fffff934
fffffc70
ffffff96
00000104
00000aac
000008fb
fffff580
000003f4
000003c1
000006ad
fffff689
0000094f
fffffefc
00000095
fffff800
00000083
fffff7eb
fffffe23
fffff824
fffffda3
0000069a
ffffff60
000006e0
000004bc
fffffbd7
0000042f
fffff7eb
0000058e
fffff6de
fffffd7a
00000246
00000231
0000072c
fffffda9
fffff579
fffff9b0
fffff907
00000428
0000082f
00000263
fffff73d
00000294
000008a1
00000636
00000805
fffffb79
fffff804
fffffbee
00000744
00000a61
ffffffc5
000003d4
000006d6
00000678
00000a60
fffff5c6
000005ed
fffffa4a
fffff7c0
0000036c
fffff891
fffffd12
0000034c
fffff743
fffffc95
ffffff9b
fffffafe
000001b9
0000038a
000009dc
00000796
00000332
00000231
fffffb71
000008fe
0000029d
00000623
fffffb12
0000059e
fffff82b
00000270
00000a54
000006bb
fffff653
00000ac8
fffff8f4
00000931
fffffdfe
000004ae
fffffb6a
000003c2
00000547
fffff57f
fffff722
000000d5
000006c1
00000515
fffff455
fffffe5b
fffff869
fffff677
fffffaf2
fffff8f4
0000026c
00000097
0000046c
00000808
00000687
000001ef
0000049b
fffff997
fffffc46
fffffff0
00000563
ffffffaa
fffffd6d
fffffab5
000003d9
ffffff67
ffffff21
fffffa68
fffffa40
000002e2
fffff68d
00000a54
fffffd06
fffffcbd
fffffae9
fffff6a3
0000062f
00000848
fffff8aa
000007ab
0000018f
fffff877
fffffc85
fffff9f7
ffffff4b
00000092
fffff69d
fffffb81
000005fc
fffff7d2
ffffffa4
00000a4f
00000512
0000006f
00000cc9
0000058c
00000313
00000313
fffffa61
ffffffdb
0000049d
fffffbd2
00000465
fffff96e
fffff928
00000086
ffffffb4
00000861
fffff9b4
fffff70d
00000455
000007e9
000004f4
fffffac7
fffffd44
000003f9
00000925
0000097c
000002c6
fffff7a5
00000007
fffffdfc
00000a0b
fffffacd
000005e9
00000083
fffffb0f
000006ee
00000a8b
fffff608
00000a0e
000001ca
0000082d
00000187
00000410
fffffbf6
fffffa1f
fffff88e
fffff90e
ffffffad
00000622
fffffe9b
ffffffa8
fffff6eb
fffffda3
0000086e
00000920
fffffb49
fffff570
fffffbe0
00000072
000007c9
fffffdec
00000a0f
fffffe10
00000087
ffffffc4
fffffa9f
fffffa20
fffffeba
fffffeb9
00000a2f
000006c6
fffff8c7
fffff758
00000023
fffff759
fffffd80
fffffded
fffff6d8
000005f0
fffff574
000001b8
fffffab2
000001ce
fffffe36
fffff609
fffffd89
00000346
000003b6
fffff60b
fffffd89
00000196
000002c3
fffff7b4
000006c5
fffffbe0
fffff8ec
fffff658
00000493
fffff792
00000365
00000042
00000a8f
00000257
00000869
00000797
000005b1
fffff6e8
fffffe1b
fffff80f
fffff6f6
00000af6
fffffbb5
00000371
00000486
fffff7b5
00000976
fffffdd1
00000624
00000293
00000315
fffff5f9
0000084d
00000675
fffffbc5
ffffffcd
fffffbf6
00000328
000000a6
0000018e
fffff7e3
0000017c
fffffcaf
000009a4
0000097a
0000083b
fffff616
fffff5e6
fffff5f1
fffff9cf
00000553
00000501
fffff935
000003e0
00000470
00000988
fffff5e3
00000832
ffffffdc
0000010f
ffffff22
fffff784
fffffcd1
fffffe52
00000a71
00000501
fffffc78
00000636
0000077c
fffffa76
00000634
fffffd31
00000438
fffff9c8
fffff926
0000042d
fffff969
fffff8d9
00000bf2
00000a45
fffff8e9
0000045f
fffff99e
fffff72d
00000a35
0000018a
0000004d
000000ed
fffff98f
fffffe3d
ffffffe7
00000a92
000008d8
fffff9bf
000000aa
00000395
0000049a
fffff8b8
000004c9
00000544
fffffe17
fffffc5a
fffff9d7
fffff510
00000013
000004bd
fffffe24
000001c1
000001d7
000009f8
00000737
000005f0
000008ca
fffffdca
fffff822
fffffb48
000000be
fffffd08
000000c6
fffffb92
00000749
fffff747
000002b2
00000010
ffffff84
fffffd22
fffff7ff
0000083a
fffff706
00000527
00000125
000004da
0000057c
00000ac4
000001f5
fffffdb5
fffffb29
0000040e
fffff9c5
fffff88b
00000416
fffff57c
000003a0
0000083f
fffff9d5
0000095d
00000472
000008a8
000006e7
0000075d
fffff9ad
000006a3
00000394
fffffeb1
00000713
ffffffc9
fffff501
fffff965
ffffff28
0000003c
00000333
fffffd4e
fffff713
000006db
fffffac2
fffffa59
00000520
00000a70
0000022b
fffff63d
00000491
00000019
fffff6af
fffffde5
000002cf
fffff5fd
fffffa57
000003d7
0000032d
fffff72e
fffff6f3
fffffd1f
fffffcd1
fffff479
fffffe84
fffff549
00000245
000008d7
fffffa41
fffff7fc
fffff70f
fffff8b4
0000014d
000003c8
0000006d
fffffbac
fffff9b9
fffffc09
0000089b
ffffff8f
fffffd8f
ffffffa2
fffff59a
000003dc
0000030c
fffff5fd
0000095f
fffff8e4
fffffa12
0000079d
0000041b
fffffbc1
000006fb
00000016
0000094a
fffff6b0
ffffffcb
fffffc68
000008cb
000003f1
00000676
fffffc6a
00000abd
fffffb0d
fffffcde
000008ee
fffffa97
0000098c
00000725
00000672
fffffea2
fffff7c7
ffffff0b
fffffef6
fffffeb6
000008b6
000006e6
00000840
000002ca
fffff486
fffffd4b
fffff72d
fffff691
00000295
000000b2
0000075d
fffffea2
00000901
fffffdf0
fffffb05
ffffffa4
fffff783
fffffd98
fffff9b9
fffffe56
fffff92f
fffff87f
fffffd1b
ffffff36
fffffe4d
00000247
00000aca
fffff9a2
00000906
fffffabd
fffffedc
fffffc34
fffff796
0000039e
0000052a
fffffd92
00000335
fffffb2f
000007e1
fffff46f
000002b5
fffffef6
000002d2
ffffffbb
fffff8b4
0000049a
0000001c
fffff99d
0000027a
00000410
000005ab
fffffb75
000001b1
fffffc52
fffff7f6
00000578
fffff5ef
fffffdad
00000779
fffffd5e
000004d6
00000729
fffff6d8
000004c4
000006af
fffff592
00000141
000007c9
000004c0
000004f9
000004ae
00000522
00000099
ffffff57
fffff836
000003ab
000009a6
fffff757
ffffff7d
00000279
fffffbb4
00000612
000009d0
fffff6de
fffff6ae
000004ea
fffff848
000002a5
0000051a
fffffd66
fffff6f1
0000086c
0000013f
00000a90
00000746
fffffc79
fffffdbe
fffff6a0
00000812
fffff79a
000008b6
00000723
fffffce6
00000862
00000314
fffff624
fffffc16
00000559
00000840
000007b8
fffffd52
00000aaf
fffffcf3
fffff6cb
fffffa18
fffffabe
fffff646
fffff920
ffffffed
fffffe49
fffffc6b
00000904
fffffdea
fffffe4c
fffffbfd
fffff879
00000061
ffffff13
fffffa93
fffff963
000004f7
00000155
fffffff7
fffff9a1
0000082d
fffffae7
fffffa2e
00000734
000007d8
fffff62a
0000033a
00000a6e
fffffbf9
fffff59b
fffff508
fffff630
0000042a
00000109
fffffdaf
fffffbf0
ffffffbd
000001b4
00000906
ffffffe4
00000610
0000082f
000002a8
000002ba
fffffea8
000002d5
fffff744
fffffc15
fffffe05
fffff7be
000005f6
fffffa5f
fffff683
00000997
fffffac1
000001bb
0000088a
ffffffcd
ffffff48
00000294
00000796
ffffff32
fffff690
0000058d
000003b6
fffffcdf
fffffcdb
000002fd
fffffdaf
fffffc80
fffff7dd
00000720
00000084
00000261
ffffff9b
fffff5eb
00000279
fffffd61
fffffae5
fffff906
fffff854
fffffd4b
fffff706
00000939
0000061c
fffffaff
fffff9cc
00000845
ffffffdd
000006b3
00000565
fffffd4c
fffffc8a
fffff747
00000a54
000000e7
0000052c
000001e2
fffff5f1
fffffd41
00000613
00000442
000007c4
000006e8
fffff768
fffffbf7
fffffeb0
fffffb14
fffffffc
fffffde8
00000208
000000e1
000008b3
fffff9d1
000003e3
000004f8
fffffb11
ffffff87
fffff4fe
fffffe3a
000007bc
00000a2e
ffffffb2
fffff699
000001b2
fffffd48
fffffdf6
ffffffb0
fffff5e8
fffff9d3
fffff974
fffff8cd
fffffe30
000002f0
00000932
00000206
000006ac
fffff5a4
000006f2
fffffc36
00000534
ffffff6c
0000023e
fffffd66
000005a2
fffffc4c
0000014d
000000ea
fffffa6f
ffffffc1
fffff918
00000b09
000003f7
fffffe6f
fffffa1a
0000049a
fffffe45
0000082d
fffffdcb
000004b2
0000082e
fffff69b
00000373
ffffff23
0000078a
fffffa46
00000a90
fffff7b7
fffffaea
fffff754
fffff703
fffffaa8
fffff88d
000002bc
fffffc55
00000272
ffffff61
ffffffa6
fffffb7e
fffff6fb
000004bb
fffff6b4
fffffb9f
fffffb5e
00000194
00000648
fffff96e
fffffd7d
fffff882
00000860
fffffe79
000001b9
fffff94a
00000b09
000009a3
000000a5
fffffba1
fffffd1d
00000519
fffff59d
fffff627
fffff849
0000089f
00000347
000000dd
00000059
fffff57b
00000533
fffffa1d
00000361
000006c1
000006df
0000069f
00000413
000008c3
00000956
00000116
fffffb24
00000192
0000014e
ffffffff
fffff5eb
fffffb0e
000003b2
000000b4
000003ed
0000012c
fffffff2
00000555
000009d0
00000917
00000254
000007b2
0000090c
000006e1
00000190
00000194
00000655
fffffdd7
fffffd08
0000069c
fffffc31
0000022c
00000535
00000a3c
0000087e
fffffe7b
fffffbf5
fffffd4c
000004d3
00000409
ffffff76
000008a2
fffff7a5
000004b1
fffffa0d
000000a7
0000086a
fffffc11
fffffcd0
fffff9a2
fffff86e
00000543
00000967
00000420
fffffb94
00000a12
0000035d
fffff620
fffff88d
fffffad3
fffffc3f
00000994
0000086d
00000716
00000193
0000004f
00000444
fffff994
fffffdf8
fffffcce
fffffb94
ffffff7c
fffff8a0
00000646
fffffbfa
00000594
000006eb
0000077e
fffff5e0
00000b0a
000003f3
fffffc1d
00000598
fffff68a
ffffff10
00000686
0000028d
000003dc
0000072f
fffff74e
ffffff34
00000707
000002ea
000009ed
fffffad4
fffffa74
00000023
fffffd4e
fffff5ae
fffffd0f
000004cc
fffff85d
ffffffad
fffff85c
fffffa62
0000000e
fffff88f
fffff424
000007b8
fffffe24
00000a7b
fffffa20
fffff9bf
00000461
fffff82a
000005aa
fffffac8
fffff9a0
000009ca
fffffc4f
000001cf
000007a9
00000b51
00000403
00000878
fffff8e7
00000673
fffffd80
00000bd3
fffffbd8
fffff705
00000845
00000d08
fffffae2
fffffb8b
000007b9
0000083a
0000023a
00000195
0000054f
fffff9f7
fffff9bd
fffffb1c
00000a1e
0000018c
fffff9fa
fffff967
000008f6
00000ad0
00000952
fffff922
00000b18
00000064
0000091e
000004cd
fffffec5
00000162
00000b1f
fffff8e8
00000a7d
00000a79
fffff8ce
fffff995
fffffbba
00000a5f
fffffb6b
00000912
fffff908
000007c8
fffffece
00000537
00000351
0000004f
fffff524
fffffe54
fffffbb4
fffff87d
ffffffe7
fffffd09
fffffefe
fffff608
0000000d
fffff677
fffffcb1
000005d0
000001a4
00000323
00000600
000007cf
00000898
0000066b
0000049f
00000421
fffffdff
fffffb7a
ffffff62
00000276
fffff938
000003b3
00000335
fffffc50
00000a81
fffffe4c
fffff775
0000006b
0000025c
fffffb18
fffffd5a
000003ed
00000a89
00000056
fffff559
ffffffb9
0000068a
0000033c
0000018a
0000038a
fffff682
fffffb66
fffffb61
fffffbe6
fffffb3b
fffffcaf
fffffd39
fffff988
000005f4
0000086e
000007f9
00000a05
fffffead
fffff8b0
0000048c
000000e3
000006f3
fffff620
0000054a
fffffb50
000006e3
000000b8
00000174
00000228
ffffffb5
fffff6fc
000005e8
fffff5da
00000350
fffffa5f
000008d5
fffff797
000003c3
fffff664
fffffe17
fffffdcd
00000997
fffffef4
00000404
00000746
00000020
00000076
00000939
ffffff92
0000047c
00000961
00000118
fffffd1c
fffff8c0
000002d5
00000627
000005df
000009ac
fffffadb
fffffba6
00000869
00000b6c
fffff876
0000085e
fffffee9
fffffd5d
fffffabc
ffffff67
fffff6d3
fffff538
fffff98d
0000049f
00000090
fffffaec
fffffd04
000006be
fffffdd3
00000200
00000555
fffff649
fffff611
0000046a
fffffab1
0000071b
000006e3
fffff617
0000039d
fffff620
000000b8
000009d1
0000083c
fffff760
000001ed
000004bb
fffff781
00000282
fffff82f
fffffd68
ffffffce
000004a0
fffff7e0
fffffcba
00000020
00000a2d
000004df
fffff564
00000488
000006da
000005e9
00000446
fffffc90
fffff6c7
000003f2
00000827
00000451
ffffff4d
fffffd0a
0000025f
fffffa9c
fffff5a0
ffffff71
0000018e
fffff6fd
0000003f
fffff5bc
000006cb
000000e9
000007d8
fffffcb6
fffffd92
fffffd61
0000078a
0000025d
0000031c
000009eb
000007c0
0000038d
000002cd
000008c0
00000536
fffffb9d
fffffbf2
ffffff87
fffff7e9
00000b49
000006d6
fffffac5
fffff5d0
fffff562
000006df
fffffccb
fffffdaa
fffff76d
00000729
fffff7f0
fffff5d0
fffff7ad
fffffb48
000001d8
fffffd22
00000858
000007c8
000004ad
fffff5e0
00000191
00000332
00000063
0000088e
fffff750
000006e3
fffffbf3
0000030e
fffffb99
fffff7af
00000103
fffffe98
00000209
000000e8
fffffa66
fffff6b0
ffffff24
0000055f
000007ec
0000067e
ffffffa5
fffff9e3
0000015f
fffffea8
fffff5cd
000004f1
00000a6e
fffff591
000000bb
000008ef
fffff92f
00000175
000005c7
000002e0
fffff5f8
00000328
fffff925
fffffd38
000005b6
00000268
fffffbcc
ffffff9a
000001e6
00000877
fffff67a
00000674
00000864
00000a59
00000556
fffffb58
fffff836
fffffb9a
000007dd
fffff652
fffffe32
fffffeaf
000009e3
000008f9
fffffc4f
fffffff6
000001ee
000000eb
00000140
00000a44
00000abd
000007dc
fffff6a7
fffffc4d
000003fa
fffffddd
000009d4
000002e6
0000034d
fffffed2
fffffd08
fffffb48
fffff978
fffffc75
fffffa7d
00000959
00000011
fffffd1e
0000087b
fffffe65
fffff6eb
000001b5
000003d5
fffff5f3
000006f7
fffffc08
ffffff0d
fffff938
ffffff71
fffffe0e
0000079f
fffff5bb
fffff9c3
00000a20
fffff6df
000003d2
fffffae3
fffffad1
ffffffe8
fffffabe
0000063a
000000fa
fffffa40
000008ad
fffffaa9
ffffff19
00000497
00000032
00000836
fffff62e
00000831
fffff838
00000911
fffff641
00000592
00000626
0000094c
000004ec
fffff61b
000007fb
fffff598
ffffffe5
0000087a
000002bd
fffffe9e
0000042c
fffffd1b
0000014e
fffffcf6
00000731
fffff70a
00000355
fffff64e
fffffbaa
fffff90b
00000022
00000187
000008d3
fffff706
fffffdaa
fffffb65
0000095d
00000b35
fffff95d
fffffa86
fffffff4
00000590
fffffe59
0000029a
00000998
00000686
0000086d
00000112
00000ace
fffffccd
fffff624
fffffa2e
fffffd65
0000006f
000001d6
000000c2
00000a8f
fffff98c
fffff559
000008a8
ffffff24
fffffc9c
fffff853
fffff712
fffffb3e
fffffb55
fffff7ca
fffffc88
00000529
fffff5d5
000001ec
fffffd71
00000671
00000844
fffffc96
00000525
000000d4
fffff832
0000088d
0000061c
000004a7
00000153
000002d2
fffffd2a
000006e9
0000048f
00000969
000009fb
00000396
00000163
00000344
0000067a
fffffdc2
00000874
fffff8ce
00000026
0000063d
0000055e
00000adc
0000070e
ffffffb9
fffff87a
000001db
fffff88e
000009e0
fffffab7
fffff5b5
00000698
fffff4d8
000004a3
fffffe1a
fffff72f
fffffbdd
000001f9
000009f2
fffff6fd
000008e2
00000742
fffffd24
0000046e
000004c5
00000a92
fffff6d8
fffff753
000000ce
fffffb1a
fffff816
fffff6cf
fffff98f
0000051a
fffff766
0000018e
fffff6e7
000000ae
fffffe64
00000723
fffffc1b
000008da
000002b0
ffffffb4
00000a6c
fffff596
fffff7e1
00000141
000005fc
ffffff67
fffff7e2
00000883
ffffff3b
0000039a
00000445
fffff663
fffffc0c
fffffe8d
fffff560
fffff764
000004f2
fffff91c
fffff90a
fffff9d2
fffff577
000005e7
000002f9
fffffbf5
fffffaa1
fffff514
ffffff85
00000abb
fffff661
000005ae
fffffbd4
fffff737
000009f9
000007b1
00000899
fffff67f
000001ac
fffff6b4
0000032c
ffffff35
fffffe20
000003a2
fffffeb8
0000058d
00000cca
00000067
fffffc3a
fffffbde
000008bc
fffffcc3
fffff7bc
0000061f
fffffbee
0000090d
fffff9f2
00000503
00000365
000001e3
00000a13
00000126
00000705
fffffb2d
000004d2
fffffe7a
00000508
fffffe1e
fffff982
00000086
fffff675
fffffe4c
00000518
fffff61f
00000125
00000052
00000b21
0000005d
fffff928
00000a4c
fffffd98
000000c1
fffff8d6
000009e7
fffff725
0000085f
00000865
ffffff3c
ffffffc5
fffff6ff
fffff88f
000001dc
000003cd
000009de
00000818
00000530
fffffc54
fffffdc6
fffff7e8
0000072c
000006f9
fffffc3b
fffff6b1
ffffff07
fffffbcc
000001f3
fffff7ca
0000026f
fffffb32
0000039e
00000077
ffffff01
00000441
fffffd81
fffffa78
fffff64c
fffff539
00000821
fffff9e5
000002c7
00000845
fffff5a8
fffffeaf
000007b0
fffffa7b
0000095a
fffff526
000003aa
fffffb91
000000d0
fffffc0b
000002a3
fffff571
fffffdaa
00000796
000005d7
ffffface
000005c5
fffffee8
ffffff2a
fffff970
ffffffb9
000006b7
00000927
fffffa72
000002ef
fffff626
000007ec
000006be
fffffbae
fffffaee
fffffd7f
00000834
fffffb73
0000075c
fffff63d
fffff733
fffffa76
000004c6
fffff5bf
000001ce
ffffff3d
00000984
00000465
0000017c
fffffda7
fffff7e4
ffffff6f
fffff5a4
fffffd84
000000d9
000008f3
00000868
000000c6
fffffa90
0000016a
fffffa8b
00000019
fffffda1
00000bb3
fffffca8
00000884
fffff911
fffffec8
fffff8e3
fffff797
fffff710
fffff7a8
00000a93
000001a3
fffffb01
fffff77d
fffff7df
000003cf
000006dd
ffffff21
00000a25
ffffff41
0000033b
fffffc64
00000011
fffffa2a
fffffab6
000000cf
fffff5ef
fffffead
fffff845
000005ae
fffff71b
00000665
fffff601
00000abf
0000022b
fffff8be
fffffb38
000009b1
00000703
fffffcb0
000000d2
fffffb07
fffff530
000007b3
fffffa77
000000d0
fffff5a1
fffffac5
00000138
fffff71b
00000424
fffffdc4
000004b8
0000045b
00000103
00000387
fffff4a2
000004a7
000004f4
fffffabd
fffffa55
fffffcf8
fffff8ec
fffffe2d
0000075e
000008a8
0000038b
000000de
0000081b
fffff683
fffffc32
fffffef4
000006f5
fffffd1e
0000074f
ffffff39
fffffb66
fffff8f3
fffffd83
fffffa39
fffff4e7
00000632
0000023e
fffffa38
000001fc
000003da
fffff5a3
fffffdaa
fffffd90
fffffc43
ffffff4f
fffffb57
0000011d
fffffd6c
fffff972
fffffc49
0000071f
000008b3
000001b4
000003f1
fffffc87
fffff937
000000af
fffff8fe
fffffd79
fffffa55
fffffd4d
00000326
fffff648
fffff62a
000005d0
00000135
00000317
fffff74c
0000059a
00000000
fffffc81
00000449
fffffcd3
00000a45
000000f4
00000337
000005a3
00000774
ffffffed
fffff9c1
fffffb96
000008a5
fffffcdf
fffffb2d
0000090f
fffffc35
ffffff8f
fffff8c2
00000a0f
00000390
fffffe12
fffffe6a
00000548
fffff75e
fffffaa4
0000012c
fffff855
00000318
00000141
00000329
000002f6
00000378
00000a20
00000aa0
00000a46
ffffff91
000009de
0000011d
fffffa0b
0000090e
fffff543
fffff6f2
fffff504
0000030c
000001ef
fffff588
fffffb31
fffffca0
00000031
fffffa93
000009ca
00000584
00000140
000002e6
fffff752
fffffb44
fffff546
fffff98b
fffff6f9
000001a7
fffffb6d
00000b45
fffffc74
00000483
000001d6
fffffba9
00000481
00000110
00000317
fffffbf0
00000857
000006e2
fffff44e
00000921
0000099e
0000056b
fffff81f
00000002
fffff6d7
fffffed7
fffffff9
fffffce1
000007e1
00000567
fffffbfa
fffff9f3
00000221
fffff543
fffff938
00000470
fffffeda
fffffa2a
fffffdb1
fffffc76
fffffeda
fffff982
0000001e
fffffad0
000002f1
fffff588
fffff553
fffff675
fffffdbc
fffffb00
fffff602
000003e6
000002a2
fffffc91
00000a01
ffffff00
fffffe7e
fffffd49
fffffac2
fffffd96
000002c9
00000709
00000435
fffffadf
00000a18
0000032c
00000169
0000011d
fffffb3b
fffff963
00000204
00000473
fffffb20
00000891
000004fa
ffffff36
0000058d
000009ce
fffff89f
000000a9
000005fe
fffff7c7
000000a6
000000ed
000001ff
fffff8d0
fffffd48
fffff892
00000a79
fffffb1b
0000001d
fffff681
fffff599
000003ee
fffffafc
fffffbb6
fffffe7a
fffffd52
fffff4ae
000007dc
000004e3
00000829
000007af
00000531
fffffb45
00000056
000003d3
fffff5ad
0000022e
000009d6
fffff545
000006a5
000001b6
fffffff3
fffffb0f
fffffee9
fffffc98
fffff604
fffffeb4
fffff6e2
00000770
ffffffa6
fffff927
fffffde0
fffffc53
00000353
000001c5
0000075f
0000082f
00000a7a
0000022f
fffff626
00000525
fffff8ba
000009f6
000008c0
000006e0
fffffdc1
00000a6c
000007bc
fffff956
000003ae
fffff6a1
00000a0b
000005b6
fffff6af
fffffdb8
fffffb8f
fffffb51
fffffd8f
0000064d
fffff79c
00000557
000005be
fffffcbc
fffff43c
fffff6b3
fffffa81
fffff7de
fffff76e
fffff8d6
fffff9a3
fffffb96
00000626
fffff8d0
000009f2
fffffff2
00000308
000000d5
000008e5
fffff57d
fffffe84
00000120
fffffac8
00000a53
00000304
000001e7
0000070a
000001bc
000003ee
00000723
000004e2
00000411
00000080
00000567
fffff7a0
fffffcaf
0000075e
fffffa80
000003a6
0000011b
ffffff3a
fffffaef
fffff855
000009e0
000002c7
ffffffad
fffff859
00000584
fffffe19
fffff8b0
fffffacc
fffff787
0000000c
fffffbad
00000259
ffffff1a
00000ab0
fffffd44
000001ac
00000a05
fffff845
0000020e
0000033d
000009ad
0000067b
00000189
00000316
fffff956
fffff5c5
fffffb69
fffffcbe
0000041d
fffffeab
ffffff66
fffffd9b
fffffa7e
000007cf
0000059c
fffff786
00000061
00000776
00000a26
00000558
000002aa
000003ec
fffffe11
00000350
fffffd15
fffff8d4
fffff849
fffffa49
fffff712
fffffbd1
0000029f
00000111
fffffa38
fffffb21
00000d22
fffffd06
00000564
fffffeb5
fffff78f
fffffab6
fffffa02
fffffb58
00000b0e
0000062b
00000284
000007b9
fffffbd1
ffffffff
0000094d
000004f2
000003f0
fffffcd4
fffff735
000001e2
00000858
0000026d
fffffbcd
ffffffb7
fffffcc9
fffffa15
fffffc10
ffffff5b
0000042e
fffff5dc
000001d8
ffffff0d
00000740
0000046d
0000030e
fffff858
fffff94f
00000431
00000214
0000048c
00000129
fffffac6
ffffff24
00000037
000002d5
00000862
fffffe6d
000000be
fffff6ec
fffffa05
0000053b
fffffced
fffff6f6
fffffbc9
fffffd0b
000008d8
fffffc60
0000084f
00000816
00000a4c
fffff765
000003a9
fffff6b4
000006f5
000004cb
fffff5dd
fffffe5c
fffff78f
000000d9
fffffd7b
00000386
00000944
fffffffe
000007f3
fffffa8f
0000073c
00000275
00000501
0000084e
000009fe
000000e3
000004d2
fffffeec
0000021c
fffffd6e
000009a5
fffffbb5
fffff7a1
00000447
fffff870
00000570
fffff80d
0000007c
fffff6ed
fffffd60
0000076b
fffff6d3
0000084a
fffffe2d
fffffd56
fffffac3
000005e0
fffff97b
fffffd3f
000004c5
00000628
fffffeb8
000007c4
000006b1
fffffefc
fffff6d0
fffff673
0000092e
000002b8
fffffb7a
fffff59d
fffffee2
fffffdc3
000005e6
0000011c
fffffcbf
fffff82e
fffffa94
000008a7
fffff7dc
fffffacb
0000046e
fffffc66
fffffc83
fffff677
fffff660
ffffffac
fffff7ec
fffff8b0
000004a9
ffffffdd
fffff5fb
00000979
0000043c
fffffcc2
fffff90f
fffff5b4
00000a68
000001ed
fffffc28
fffff681
00000790
0000074a
fffffea7
00000830
000004be
fffffa56
00000a20
fffff5e9
fffff5c2
ffffffcf
fffff53d
fffff822
000007e2
fffffbfb
fffffd33
000000fa
00000914
fffff9af
fffffda9
0000004b
fffffee2
0000079f
00000944
fffff752
fffffb42
fffff8ed
fffff74a
fffffadf
fffff612
fffff8ad
000009c8
0000033c
fffff794
fffffa73
00000968
00000283
0000008a
00000718
fffffd52
fffffe03
0000004e
00000949
0000087d
000001b6
00000616
fffffda9
ffffff88
0000030d
000007c3
fffff743
0000034f
fffffa98
fffff9ea
0000048c
00000a0b
fffffa26
00000461
fffff8ef
fffffdb7
00000078
00000070
00000ab1
000009ba
00000298
ffffff55
0000045f
ffffffca
fffffc42
00000a14
fffff962
00000939
fffffebc
00000115
fffff8fb
fffffb96
fffff700
000000e5
00000520
000000c3
fffff927
000009df
fffff5d5
00000502
00000970
fffff98b
00000212
ffffffb9
00000475
00000203
00000bfd
00000078
00000266
fffff5bc
000001f7
0000033e
fffffff2
00000262
fffff53e
0000068c
fffff4f9
fffff6fc
fffff8f0
0000030d
00000110
000003e0
fffff761
00000226
fffffa4f
fffff57a
fffff83e
000000cf
fffffd79
fffff9ce
000001a4
fffffbdb
fffff6ef
fffffa5c
fffff4ab
fffff4ae
fffff69f
fffff926
fffff66f
000009aa
fffffd75
fffff8f2
000006dc
fffffa23
00000980
000002db
00000075
fffff806
ffffff03
00000792
fffffaf5
fffff6f1
000005b2
00000317
fffff60c
fffff91d
0000037a
00000a21
fffff74c
00000433
00000350
00000155
fffffd2d
000006b8
fffff713
fffffaac
0000018c
00000539
000002f5
fffff9a0
00000be8
fffff67f
00000521
fffff9a8
fffffc55
0000093f
fffffa72
fffff842
fffff9cb
fffffdc0
000002bc
0000014b
00000c95
00000246
00000392
fffffaf7
fffff7d2
fffffbc7
fffffd8e
00000353
fffffb78
00000177
000009cb
fffff56c
0000013d
fffffad7
00000aa4
fffffac3
fffff5e0
000000fd
ffffffbb
fffffb90
fffff82d
fffffe3f
fffff692
fffff8d9
000001db
0000069d
fffffd96
000002fa
fffff9b0
fffff675
000003ed
fffff887
fffff77a
fffffdf5
00000085
fffff9a4
fffffc62
fffff941
00000451
00000501
fffff750
000007f7
fffffe4f
ffffff2b
fffffe12
00000753
00000748
0000067e
0000045f
0000018c
000008da
000007eb
fffffcf7
0000031c
fffffec9
fffffd53
000009a1
fffff583
0000055e
fffff4b0
00000a2d
fffffb03
000008f0
00000788
fffffb73
00000528
fffff5e8
000000a6
0000059b
000001b8
fffffe3e
000002d8
fffff99a
000005e1
fffff7c6
00000bc7
00000294
00000876
fffffe1e
0000095e
0000053c
0000036d
fffff94a
fffff868
fffff633
000007de
fffffe1d
0000049c
00000a96
fffffb70
fffff6f3
000009db
fffffed4
0000097b
fffff900
fffffa6b
fffffe2f
000003f0
00000942
fffffe16
fffffec7
fffffdb8
000004bf
fffffcbb
00000053
00000445
0000082b
fffffa04
fffffdb2
fffff66d
00000a07
0000001c
fffff945
000009a7
fffff801
fffff7e1
0000030b
fffffd0b
00000323
fffff883
fffffd16
00000574
00000081
000000fe
fffff7cd
ffffffa0
00000826
ffffff6c
fffff94f
fffffb05
000008ce
00000662
0000098e
fffff5f8
0000080c
000005eb
fffff5ce
ffffff50
fffffeed
fffffe2e
0000053f
000007b1
fffff466
0000052e
000008f3
00000098
000000a0
00000073
00000214
fffff853
00000395
00000669
00000031
fffffba6
fffffe90
000006c4
0000089c
00000aba
fffff941
fffffa52
fffff64f
fffff640
fffffac1
fffff89c
fffff63e
ffffff16
fffffbb6
000003ab
0000039a
0000077f
0000084f
fffffe04
fffffc1b
00000420
fffffc8d
00000580
000007be
fffff580
fffffb04
fffff4c8
000001ee
fffffc9f
00000645
000003f9
fffff74a
00000481
fffffb2c
000007af
0000046c
fffffd36
0000038f
fffffebe
00000745
00000341
00000364
0000040d
fffff90d
fffff79e
fffff618
fffffe92
fffffda4
fffff982
fffffd83
fffffdd5
0000046a
fffff7de
0000065a
00000981
fffff614
000008ab
fffffbf0
fffff558
000003b9
fffffeb0
fffff4d9
000008dd
fffff690
fffff73d
fffff8c6
fffffff9
fffff971
fffffb61
fffff936
000003ab
0000077a
000009dc
fffff9c5
000002fd
fffff830
0000033b
00000a44
00000155
000007e4
00000276
fffffd0b
00000226
0000019a
00000020
fffff86c
fffff18b
0000008a
fffff88e
000009ff
000000b0
00000418
fffff84f
0000076d
00000a72
fffffa12
fffffd1f
ffffff83
00000585
ffffefe7
00000a92
0000000c
fffffe60
00000872
00000334
0000002f
0000088b
0000046f
fffffec1
000009f1
fffff772
00000822
000009e1
000002f3
fffffe2e
fffff6f4
fffff74c
fffff9d8
fffff8fe
fffff8eb
00000983
fffff865
fffff9a6
fffff727
ffffff9e
fffff5cd
fffffdbb
fffff9ce
fffffc6c
fffffbf7
000001e5
fffff602
00000515
fffffa19
fffffeac
0000054c
fffff774
fffffb42
000007e3
00000ae9
ffffff75
fffff45d
00000a75
fffffd08
fffff734
fffff676
fffff5f6
fffffe00
00000007
00000593
00000ac1
fffff9b8
fffffea4
fffffee7
00000584
fffffbb3
fffff565
fffffdf8
0000088d
00000191
fffff46a
fffffdb4
00000abe
fffffd0c
0000087d
fffff9a6
000005c3
00000579
fffff5c2
fffff744
00000829
0000018f
fffffcc9
ffffff90
00000170
fffffa73
ffffffc9
000009bd
00000833
fffffe24
fffff731
fffff82d
fffff7d0
fffffba0
fffff63b
fffff5e6
fffff69e
00000225
00000805
0000028a
fffff848
000003d9
0000040f
fffff60a
00000647
fffff68e
fffff5d5
fffffc3e
fffff622
fffffaf5
0000098f
000003e7
00000291
ffffff18
ffffffb7
00000828
0000131c
fffffff5
00000a13
fffff9b8
00000c59
fffffde0
fffffe1f
fffff77d
fffffce3
fffff921
fffffb28
ffffff7d
fffffde3
00000340
ffffef6c
fffffb65
0000059f
0000003a
fffffc03
fffffb7b
fffff4ca
fffffa42
000009c8
00000bc1
00000590
0000084d
00000584
0000077a
fffffd3a
fffff3e8
fffff5ce
fffffda2
000008a3
0000028f
0000049e
fffffcdd
fffff723
fffffd35
fffff4ef
fffffc9a
0000083b
fffffb0f
0000068b
000009cd
0000042f
00000059
fffff895
0000077c
00000a5d
fffff9d6
0000000b
000005c8
fffffd86
00000390
00000061
fffffacb
000001a0
fffff967
00000227
00000291
fffff9d5
fffffb50
fffff71d
fffffc45
00000190
00000732
fffffaf2
00000670
00000647
fffff59b
00000389
0000087e
000005c2
0000010a
fffff9fb
000003d9
fffff9c5
0000019b
fffff8e0
fffffc84
fffffd25
000007cc
000008a2
fffffd73
fffff5dc
fffff620
0000044a
000006df
fffff7bb
000006cd
fffffdb5
000003d0
00000399
00000a26
fffff6f0
fffffff9
0000013a
fffffb7f
fffff590
fffff884
fffff648
000004b8
fffffa37
fffffbe3
00000955
0000029b
000004ad
00000a75
00000078
fffff77f
fffff874
fffff908
fffff67c
fffffaaa
fffff776
fffff649
0000032a
fffff6b8
fffffc0e
fffff7ce
ffffff29
00000190
fffff872
000000c5
ffffff7b
fffffc81
fffffab6
fffffe09
000008fc
fffffdff
fffff778
fffffc44
fffffb77
000001e6
000007c0
00000933
0000033f
fffffe86
fffff66f
ffffff74
0000005b
fffff904
fffffad0
fffffbcc
fffffae4
fffff7f8
0000091c
00000948
0000089c
00000646
fffffae8
00000968
fffffb97
0000060d
fffffb40
000005aa
000007c1
000005a4
ffffff6c
fffff471
fffffc46
000008c5
00000598
00000181
fffffa79
fffffbca
fffff820
000000b3
00000156
0000037b
fffffdd5
000006fd
fffffb74
fffff73e
fffff87b
fffff59d
ffffff40
fffff571
fffff58a
fffffe6b
0000027a
0000073a
fffffa42
00000095
ffffff41
00000462
fffffe0c
fffff812
fffff8da
00000118
ffffff1c
fffffbf3
fffff798
fffffb7b
00000a51
fffff99c
fffff58e
000005b5
00000167
00000524
fffffae0
000008ef
fffff54c
fffffbf6
fffff93a
000000fe
000000fb
000007a4
fffffb59
00000137
fffffa22
000009e3
0000014b
fffffbbe
000006f4
000002b8
00000607
fffffe3e
fffff8e5
000008b6
00000007
fffffbfc
fffff9eb
00000489
fffffb72
00000323
0000049c
00000289
fffffb7a
fffffb7a
fffff96e
fffff61c
0000057f
00000542
fffffaa3
fffffdd7
000008a1
00000697
000009b3
000000ab
00000bfd
000004a1
00000203
00000720
fffffb12
00000ad4
000005db
fffffbb4
ffffff94
fffffce9
00000030
00000064
000004cb
00000157
0000043f
00000e96
fffff9b4
fffffe20
fffff5a7
0000027b
000003f8
0000046b
00000423
0000095a
fffff35f
000009af
fffffce9
fffff65b
0000006e
00000539
000008c2
fffffbb5
ffffffe5
00000558
fffff5d0
000004fb
fffff57b
00000909
0000012c
0000044d
fffff798
fffff86b
fffff7a6
000000af
00000728
fffffbdf
fffff631
fffffdfe
fffffe6f
fffff5e2
fffffc72
fffff6b8
fffffe98
fffff8c0
00000362
fffffc76
ffffff1f
fffffa8b
0000055c
fffffa73
fffff0eb
fffff75e
fffffc7f
0000008c
ffffffb4
fffff2cc
ffffffcc
00000633
000003cd
ffffff8d
fffff712
00000439
00000332
ffffffd9
0000031e
fffff623
000001e8
00000401
000006d3
000005bf
000003d0
ffffffde
ffffff05
fffffa9c
000006e8
00000052
00000a7e
fffffcee
fffff9bd
fffff753
00000531
000002c1
fffffd2c
fffffb13
0000038d
000006e2
0000007c
fffff595
fffff7a8
ffffff24
fffff6e0
fffffc99
000002e1
00000361
fffffebf
00000cae
fffff930
000004fc
0000089f
000004d7
000000c8
fffffb13
fffffdec
fffffa93
00000142
000001c6
fffffa45
0000066f
00000218
000004ec
ffffffab
ffffffb7
fffffbe1
0000018a
fffffe3e
000002c3
00000379
fffffbba
fffff98d
0000031d
fffffdae
00000127
fffff9d9
ffffff27
00000863
0000053d
00000919
fffffc03
0000002c
fffff388
00000681
fffff7b1
00000755
00000703
00000303
000009c1
00000586
00000774
0000066e
000003bb
00000555
fffffd1e
0000072c
fffffd79
fffffde6
0000010f
ffffff0b
fffff7a7
00000ac1
fffffbe3
fffffa93
fffff7dd
000006f5
00000a26
fffff899
fffffcb4
fffffd35
fffffc13
ffffff1d
00000558
ffffffc4
fffffd9c
000007ab
fffff694
fffffab6
000005af
00000563
00000187
000005aa
fffff76e
fffffbcd
fffff57d
fffffe99
fffff76c
fffffb52
00000c84
fffffbc2
000004b8
00000964
fffffa9a
00000122
000006e5
0000085f
00000553
fffff8a4
00000928
0000002c
fffff9e2
fffffbd6
00000b08
fffffcad
fffffb81
fffffb9d
00000b01
00000b07
fffffd3c
fffff92f
000002da
000005bb
0000060a
fffff7ef
fffffc13
00000455
0000062c
00000529
fffffea3
000001c2
000007e6
00000754
fffff59c
000009f4
fffff9ba
000006da
fffffb55
fffff883
fffffb15
000006a7
fffff966
fffff6b8
fffffcbe
000002ea
fffffa87
00000564
fffff910
00000ad7
0000018d
000003df
fffff546
fffffd6b
fffff1ad
fffffb33
fffff687
00000990
ffffff1c
fffffac1
fffffd20
fffff57f
fffff9cb
ffffffba
fffffd6a
0000069d
fffffcbb
fffffacf
00000381
0000071c
0000053c
fffffb43
fffff6b9
00000992
fffffee9
0000052e
fffffb00
fffff9cd
0000028c
0000098c
fffffe02
00000a15
000009eb
fffffb71
fffffe8a
000005d2
000008e5
00000265
fffffcae
00000316
00000699
ffffffc1
fffff943
00000264
000000b3
00000809
fffff863
000006b5
fffffc61
00000a54
fffff86c
00000559
00000679
00000a05
00000888
000008aa
fffff5ad
00000762
fffff958
fffff4ef
fffff3cc
000003eb
0000050e
fffffb01
000001fb
00000718
fffff595
000002a9
000009a9
fffff4c0
fffffa92
0000032d
fffffeaf
fffffee3
00000c9f
ffffff86
fffffb66
fffff742
ffffff41
fffffc68
000003d9
0000051a
000001c8
00000058
00000b9b
fffffd89
0000005b
fffffe3a
00000201
000001a6
fffffdc4
0000003a
000006d1
00000434
fffffb1a
0000030c
0000083d
fffffebf
0000009b
fffff52b
00000313
00000524
00000538
fffff81c
fffff502
00000a9e
00000083
fffff61b
fffff64f
0000037a
00000010
00000843
fffffacb
fffff34c
fffff9fe
fffffcbc
0000041c
000008e2
fffff881
000006ca
00000847
00000595
fffff6c3
00000167
00000032
fffffb0b
fffffd87
000002e7
ffffffee
ffffffef
000005a8
00000541
fffff5ad
0000085b
000005ac
0000050c
fffffccd
000002f4
fffffb23
00000128
fffffed1
000008e8
00000ab4
0000001f
fffff936
fffffc7e
00000912
ffffff78
0000082b
fffff924
fffff674
fffff77a
000001b5
00000708
0000084e
ffffff40
fffff999
fffffa8c
fffff73a
00000352
00000514
fffff9fb
fffffa47
0000005e
fffff4ec
00000149
000009bc
00000476
00000230
fffff99b
ffffff3f
0000049e
fffffe3d
fffffa09
0000023a
00000482
fffff67e
fffff66b
00000606
00000050
ffffff00
00000992
00000581
0000092a
00000a48
000004c1
fffff8a3
000007df
fffffb35
fffff83f
fffff9c2
fffffb37
00000826
000003e3
000009fe
fffffc1e
fffff665
00000a85
00000956
fffff72d
fffff8b0
0000043f
00000a03
0000081d
00000250
fffff5c7
00000688
0000090c
000002e2
fffffb7e
fffffeb2
fffff81a
fffff827
fffffd66
fffff6ae
fffff506
fffff91f
000000f9
fffff9c4
fffffc02
fffffd40
0000012a
0000046c
00000b1c
0000140b
00001575
00000938
00000a10
fffff955
fffffe86
000008fe
ffffff57
000005b7
fffff4fd
0000034d
00000376
000006c8
fffff607
00000881
0000095b
fffff5d7
fffffc15
00000870
fffff99e
00000169
fffff72e
fffffbff
fffffb89
0000072e
fffff87e
00000671
fffffa52
00000192
fffffd58
fffffc79
0000045e
00000872
ffffff15
00000a12
0000087a
00000b09
0000089d
0000084b
fffffc7f
00000528
fffffb2b
ffffffe8
fffff6c4
000001f4
000005df
000009dd
00000149
00000591
fffff941
00000389
fffffbb3
00000a5f
00000110
fffffcd5
00000188
fffff9fd
fffffebc
fffff6b9
000007d4
fffff83e
00000838
ffffff7e
fffff95a
000000ff
00000aa0
fffffb1f
00000369
ffffff63
fffff830
fffff54d
00000523
fffffda9
fffff5c7
00000846
fffffb02
fffffae8
0000054f
000003ea
fffff722
fffffbc4
fffffb16
fffffc81
000009f4
fffffcac
00000174
0000001a
000000c5
000001ba
000000a3
fffffa68
fffffc45
fffff75f
0000031c
fffff98e
00000736
0000046d
fffff87e
ffffffd8
00000a62
fffffd3d
fffffbd3
000009ba
fffff5e9
fffffac8
fffffc27
000000ca
ffffffa2
000009ec
fffffe43
00000a45
000002bd
00000625
000003b2
00000b95
fffff83b
fffff724
fffff60b
00000960
000006cd
000007e1
00000821
000002f1
00000943
fffffdfb
000003a1
000001f0
00000583
fffffd3d
000009fe
fffff3e5
fffffc6f
fffff9ee
ffffff7e
000008f8
fffffadb
fffffb22
000004e3
fffffd9d
0000024b
fffff76e
fffff6e2
000009ab
fffffe21
fffffcf1
00000c29
0000039e
fffff6d2
fffff9e4
000009ba
00000ac8
000008ce
fffff8f4
fffff598
00000fe2
0000030f
0000086b
fffff5e4
00000120
fffffc7b
fffff15d
000000c9
000005d2
fffffb03
000002d9
0000087d
fffffcbc
000001ea
0000017a
fffff4e9
fffff5c0
0000047c
fffff9b2
00000844
fffffd01
fffff0d2
fffffaee
00000887
00000a6b
fffff710
fffff557
00000bd3
fffffe58
000005c9
fffff650
ffffffb8
00000170
fffffbd3
fffff910
fffffd53
fffff7e9
00000672
fffffd87
000007e4
000002be
000002f1
0000091d
fffff6f1
fffffb74
ffffff6b
00000409
0000025d
fffffe49
000006b3
fffff8e3
fffff2b3
000000b0
fffff8be
ffffff55
fffffafe
00000707
00000890
00000681
fffffce0
00000679
fffffdab
00000716
00000222
fffff4e6
00000377
ffffff18
00000281
000002c4
fffffa2c
0000077a
fffffa66
0000023d
000004d0
fffff76f
0000000f
0000080c
000002a9
fffff64b
00000a86
ffffff4f
fffffe7b
00000572
fffffba0
0000092c
fffffefd
fffffae8
000000d0
000003a0
fffff48f
fffffaaa
0000067b
fffffcd4
00000826
fffffb54
000001e3
00000162
0000062d
00000875
fffffe90
000000d6
fffff8f8
fffff9d4
fffff945
00000b47
000006fc
000000d2
fffffd9a
00000507
0000025c
fffff649
00000614
fffffa65
00000818
fffffe66
00000141
00000a17
000000b9
000003c1
fffff7a9
00000bc3
00000b73
ffffff84
000005b2
0000002b
fffffaca
000002de
fffff4ab
fffffaa1
fffffdc9
000001ff
000005a1
0000014c
000002a0
fffff9f6
fffffb82
000002a7
000004bb
fffffe27
fffff722
fffff67c
fffffd52
000004cf
fffff9f3
fffff79d
fffff708
000003de
fffff446
fffffdb8
fffffaa7
0000005b
000005e6
000000cf
fffff721
fffffd48
000008dd
fffffb07
fffff43d
fffffb06
00000006
00000a30
00000871
fffffc09
fffffbb3
000006e5
ffffff45
0000082a
fffffb57
000009a7
0000026d
00000195
00000934
000006ce
fffff8ec
fffff49c
fffffe65
fffff99c
0000017e
00000199
fffffea1
fffffaf9
00000819
0000047a
000009f7
fffffc1d
0000001c
fffffef7
000008e3
000007e6
fffff8f4
0000063d
00000b7d
fffffa4d
000002eb
fffffcc0
fffff8fa
fffff655
fffff366
000008c4
0000007a
000002b6
fffff613
fffff8b9
0000082c
fffff8cc
000008f6
00001018
00001241
fffff9ef
fffff9d7
00000752
000000ea
fffff6a6
fffff685
0000009c
fffffc1d
fffffe2b
00000451
000001b9
000000a7
000009d8
00000446
fffffa2b
fffff7cf
fffffcc0
fffff715
00000254
000002b3
0000040f
fffff9ba
fffff9a6
fffff4cd
0000111b
fffffb30
00000999
fffffaf3
fffff998
00000804
0000050f
0000084d
fffff6a5
00000603
fffff86e
0000074c
ffffff99
fffff648
ffffff41
fffffd4b
fffffe67
fffff702
00000202
fffff865
fffffb43
fffffaa8
00000311
fffffb1a
fffff82a
000001db
00000673
fffffeb4
fffffd8d
fffff9c1
000008aa
fffffc8e
fffffe44
000003ba
000006c2
00000603
0000032f
00000001
fffffb29
000009c2
00000694
00000798
000003bf
000006a9
000004e3
00000634
000000df
000005e2
00000157
fffff5d4
fffff7f6
00000501
00000a1b
fffff72c
000008e9
00000353
ffffff6f
fffffcaa
00000790
fffff889
fffff71c
fffff791
fffff7cc
000002ff
fffffa85
fffff6c1
0000003e
fffffa76
fffff765
000004ca
fffffcef
0000053d
fffff56a
00000b08
fffff9c4
fffffe25
fffff783
0000095e
fffffe00
00000828
fffff910
fffff700
000007d4
fffff7b1
000003e1
00000be3
fffffe89
00000891
000006e7
fffffe16
fffff8eb
fffffbd3
fffff9b2
fffffe4a
00000b8d
fffff516
fffffcaf
0000051c
000004c7
fffff6e1
00000814
fffffe73
00000b09
00000728
fffffc61
00000cc3
00000624
fffffd84
00000125
0000008e
fffff3a6
fffff9d1
fffff8f5
000007a3
00000851
fffff640
fffffb51
fffff92c
0000098f
fffff543
0000085f
fffffc44
00000ab0
00000469
ffffff7a
fffffe98
fffff67a
fffffbd0
00000403
fffff45f
fffff66a
fffffde9
000006b8
00000144
fffffbe3
00000531
ffffffd5
fffff8bc
00000923
00000c83
ffffff64
fffff65f
000009b8
fffffe42
000004ac
fffff859
0000039b
000009e2
fffff761
fffff9b6
fffff4b8
fffff523
00000a18
fffffac2
fffff94d
fffff8f1
fffffc53
fffffef2
00000791
00000df6
fffff664
00000405
000005c8
000003d1
00000413
000002bd
000000ef
fffffc33
000005c3
00000415
0000026b
000009d7
0000060f
fffffd97
00000235
ffffff4e
fffffef8
00000206
fffff730
fffffa59
00000499
000009cc
fffff9a5
fffff4ba
fffffba8
00000ccc
fffff94e
000006a3
fffff680
0000016b
0000016b
000009d5
ffffff6b
fffffcc9
00000607
0000066c
fffffe35
ffffff16
fffff8a7
ffffff54
fffff8d6
000007ca
00000471
fffffc6f
0000064f
fffff9ee
fffff811
fffffe1d
000003fb
fffff7be
000001a9
fffffca1
00000425
00000138
00000229
00000f96
fffff91e
fffff74a
0000014a
00000fbc
0000007f
0000056b
fffff710
fffffc77
fffffbe6
fffff712
fffffd02
fffffee8
0000004d
00000af2
fffff07b
0000021e
00000906
ffffffb0
fffffab3
fffffe49
fffff698
000000f2
000000be
00000085
fffff345
fffffbba
fffff6f5
000005e2
fffffdce
fffffd66
000001c6
fffff742
00000491
fffffd17
fffffea5
000003cb
0000054f
ffffffd6
fffff4a7
fffff95d
000007c5
fffff750
fffff47a
0000029e
000007ed
0000051f
000007e5
ffffff5f
fffff606
fffffc56
fffffaed
000003c3
fffff9d6
fffffbaf
000003f3
000004dd
000004d1
ffffff4a
000005b5
000005a1
000007bc
0000018c
fffffb82
fffff9b3
fffff697
00000379
000000ed
fffffb90
00000088
fffff6a1
000009d5
00000547
00000157
000000cb
fffff50d
000006fe
0000064e
00000253
fffffd75
0000080a
000000b0
000007b9
fffffd40
00000c3e
000006e5
fffffa38
000002ba
fffffc16
fffffaa7
00000476
fffffad5
fffffbf8
00000562
00000076
00000198
000007ee
000006dd
0000075c
00000d0c
fffffb1b
ffffffaf
fffffb4f
fffffe03
000002d1
0000023f
fffff6e0
00000966
fffff53e
0000081e
fffffcb8
fffff4d2
0000017b
0000091c
fffff7ed
000006bd
fffffccf
00000889
0000012a
00000018
fffffb7a
000002cc
fffff643
00000390
fffffe51
fffffed3
fffffd89
000009d4
fffffded
fffffd8c
ffffffd2
00000907
00000461
0000054b
fffffd9e
000002ea
fffff83d
00000276
000008f5
fffffb9d
00000037
fffff773
fffffc21
fffff726
0000017d
0000048d
0000020a
ffffffdd
00000327
00000295
fffff8c0
fffffe65
00000785
0000018c
fffff79e
fffff4c2
00000165
fffff6c1
fffff87c
fffff8b0
00000174
ffffff54
000008db
fffffbb2
fffff6aa
0000000e
000000ba
000005a4
0000073e
0000089f
fffff5d5
fffff789
fffff687
fffffc26
fffff923
fffff3f0
00000273
000002c2
000003cf
fffff567
fffff39a
fffff5c7
fffffee3
00000b46
00000b49
fffffeda
00000605
000003f4
00000414
fffff72a
000001bf
00000331
00000ae8
00000435
fffffc5e
00000178
00000080
00000a2c
fffff692
fffffe3c
0000064e
fffff676
fffff582
ffffff03
00000a78
00000525
00000745
000005e6
000000eb
0000062a
00000309
fffff9d7
fffffa4b
fffff7db
fffff752
fffff595
00000848
fffffe57
fffff764
00000278
00000005
0000024e
fffffeff
fffff693
fffff1db
000003a6
ffffff13
000002ac
fffffb3e
00000a0c
fffffa1b
fffffb17
0000067b
000005e8
00000145
fffff955
00000633
fffffa94
fffff8b8
fffff91a
0000077f
000005e5
fffffa0c
fffff5c0
fffff7bb
00000b8e
fffffe5d
fffff564
00000888
fffffd92
ffffffce
fffffc30
fffff97c
fffffd33
00000a40
0000017b
00000370
fffffa74
0000025a
fffffbc4
fffffc8f
0000067b
fffffca3
fffff591
000003dc
0000023e
00000585
fffff90f
ffffff76
fffffc28
fffff7de
fffffa4e
fffff782
000001bf
000005c3
fffffceb
fffff804
00000a68
fffff769
0000030e
fffff88c
000006c5
fffff84f
fffff69f
fffffe3e
00000610
fffff8c0
fffffd7d
0000044e
fffff2cd
0000052d
000003ed
000005a1
ffffffb9
00000055
ffffffb0
fffffeb0
fffff76e
ffffff4a
fffffcc0
00000340
0000016b
fffffc7f
00000a11
00000d7a
0000000c
fffffedd
000006b5
000008fa
fffff5e6
fffffd20
000003aa
fffff7f6
000001fd
00000972
00000075
000009f2
fffff679
fffff6e9
fffffe77
0000082f
00000876
fffffbc7
00000169
fffffe49
00000ef8
fffffb86
0000048b
fffffc82
fffffdc6
fffff958
00000568
000004de
000001ec
00000bce
000005d9
fffff71e
fffff9c1
000001bd
000007ca
fffffe79
fffffeb3
fffff8ef
fffffb05
00000653
000004bd
00000800
fffff64a
ffffff05
ffffff2d
0000037a
fffff7e7
fffff990
fffff865
fffff6e7
ffffff49
ffffff21
fffffcde
fffff89c
fffff8c6
0000082b
00000341
000002db
fffffd12
fffffbaf
fffffd5e
fffff968
00000378
0000067d
fffff7f5
00000409
ffffffed
0000017a
00000450
000000c1
00000154
fffff5fb
fffff82b
0000077a
00000aec
0000000e
fffff880
000002f5
00000a65
00000429
fffff93e
0000072d
ffffff32
00000406
fffff7e9
fffffbc3
0000025a
00000778
000009f3
fffffe85
00000d42
00000814
fffffa85
00000641
00000320
fffffb82
00000732
fffffadd
fffffd74
0000003e
000004b1
fffffb79
fffff89b
fffffea5
000008d6
00000d00
00000352
0000095e
fffff90e
fffff316
fffffd5d
000003fc
000001ef
fffffae8
00000ceb
00000e36
00000a36
fffff68c
fffffaa4
fffffd9b
00000218
fffff6e7
fffff8ae
fffff81d
0000071c
0000071b
00000633
fffffbd2
fffffffd
000001ee
0000077d
0000045f
fffffef1
fffff5ab
fffffeba
00000889
00000579
fffffb6d
fffff56c
fffffe57
000003e9
fffff56b
00000656
000007c2
fffff90b
00000a78
00000936
000005b9
fffffb0f
ffffffe0
0000032b
0000056b
0000091f
0000070d
00000598
00000445
000002ad
000004b8
fffff8dc
000005ef
fffff55a
fffff873
00000c9a
000001fa
00000305
0000046b
fffffcf3
0000075c
00000482
000003e0
fffffcde
fffff66c
0000081b
000009ac
00000066
fffff8a3
000008ee
ffffffd1
fffff97a
0000077d
fffff3ca
00000559
fffff6f4
00000760
fffffaac
0000014e
fffffaee
00000744
fffffb11
fffffa8e
00000077
fffff8b0
00000437
00000a72
000000a3
0000056d
0000004d
fffff99a
fffffa05
fffffbb7
fffff92d
00000a4e
ffffff85
0000047e
00000800
0000063a
fffff959
fffff98c
fffffe9f
00000a74
fffff3e5
fffffd11
fffffc71
fffff8fb
00000348
fffff4c8
fffff7c3
ffffff53
00000929
ffffff07
fffff541
000001e9
00000734
fffff82f
00000a39
000008db
00000234
ffffffcc
00000814
fffffc27
000006b4
ffffff49
00000150
00000288
fffff5f3
fffff5c2
fffff85d
fffffd22
fffffed3
fffff781
fffffecc
ffffff77
00000042
000009e0
00000130
00000901
000006dd
ffffffd7
fffffc91
00000758
fffff81e
000001fb
00000307
fffffce3
fffffff1
0000002a
00000501
fffff7c1
fffff63e
00000268
fffffc55
fffff740
fffff592
0000028e
000002c5
000004f0
fffffedc
fffffb19
fffffe77
fffff95b
fffff784
0000095b
00000802
fffff94c
fffff721
ffffff71
fffffe3f
00000699
fffffa3c
000004df
00000513
000007fd
fffff6e2
00000013
000002e6
fffff98b
ffffffc1
000007bb
fffffc01
fffff715
00000619
fffff5d0
ffffff24
000004a2
fffffb43
00000649
fffff7ad
ffffffbe
0000028a
00000346
00000377
fffffbd2
fffff9c4
fffffec3
fffff98b
fffff5fb
000001d7
fffffb2b
00000a6e
000006d2
fffffdee
fffffc74
000009a4
000006a8
000005d2
000006ca
fffffa56
ffffffd0
fffffcb0
fffff6e1
0000000e
000002e3
fffff8a5
fffff914
000005c6
0000015d
ffffffef
000007c1
0000020a
00000c1c
00000432
0000045e
fffff6c7
00000082
fffffa7a
fffff792
0000047c
fffff689
fffffe9b
fffffc62
000007c5
00000069
fffff5c5
fffffa96
00000740
000004f1
000007e5
00000333
0000050c
0000023e
fffffed6
00000121
fffffd58
0000000c
fffff37c
fffff87b
00000a37
fffffcf2
fffff75c
fffffdaf
0000011c
ffffff34
0000037e
000000f3
fffff759
fffff2b0
00000871
0000038f
ffffff88
000002b1
00000cf9
0000083e
fffffbee
000007a9
00000ef4
fffff20c
00000045
000009be
000005f4
fffffa05
fffff9e5
fffff65b
fffff576
00000623
000006e7
00000abe
000003b7
fffffbda
00000f84
fffff7dc
fffff2f5
fffff7eb
fffff71e
000009c8
000002e3
000004bd
00000940
000008b6
ffffff8a
ffffff36
0000094c
000006e3
00000a98
fffffedb
fffff826
0000030e
fffff9d1
fffff5dd
00000767
fffff99b
fffffaa6
0000066b
00000552
fffffb87
fffffd19
fffffb78
000009cc
00000898
fffffc28
0000078a
fffffa14
000003cb
fffffb50
0000056b
000001d6
ffffff6c
000004c2
fffffa62
0000075b
ffffff30
fffff905
000001c9
fffff736
fffff63e
000007a6
00000608
ffffff5b
00000232
fffffa67
000006dd
fffffa56
00000853
000003b6
fffffeaa
00000544
00000979
00000625
fffff6dc
00000b7c
fffffeb3
fffff61d
00000a0b
000007e7
ffffff8c
00000726
000004f2
000001e3
fffff993
00000a11
000006af
ffffffeb
000000dc
fffff637
fffffa30
00000627
000006df
fffff59f
00000250
fffffc3e
00000782
fffff719
fffffe13
000001af
fffff628
fffff942
fffff81e
ffffff2c
fffff6c4
fffffbc9
ffffff3d
fffff8da
fffff800
fffff772
00000a15
00000485
000001ef
0000001f
fffffee2
fffffe31
00000053
fffffc35
00000084
fffffeb9
fffff880
fffffe4b
fffffe21
fffff6de
fffff571
00000430
fffff51e
fffffea1
fffff9dd
fffff66e
000001ad
fffff576
fffffd38
000004ae
ffffffe6
ffffff8f
000008da
00000626
fffffc02
00000503
000002c5
fffffd6a
00000b2c
fffffc14
fffffd57
0000087c
00000828
0000047f
00000856
fffff7a7
00000241
fffff80a
00000903
fffffdd7
fffffcdb
0000038c
000006ac
fffffe0f
fffff8b9
00000944
fffff66d
fffffb59
fffff64b
fffff982
fffffedf
fffffbfa
0000085d
000002d3
fffff8ac
fffff647
fffff8ca
fffffc86
0000009a
000007b0
00000767
fffffe73
fffffb73
00000cc0
000005e4
0000044e
fffffb06
fffffaab
0000094d
fffff7f6
fffff68d
fffff681
00000685
000003b0
00000972
000001f0
fffff4f4
00000741
ffffff42
00000190
00000146
fffff50c
fffff72c
fffff16b
fffffd58
fffffeb6
fffffe48
ffffff1b
fffffd16
fffff92f
000001ba
fffff90a
fffff636
000005fe
fffffcb8
00000997
fffffc8e
0000051e
fffffd47
ffffff0d
fffffc61
fffff74e
fffffe25
fffffb3d
fffff5b5
fffffb77
fffffd81
fffff94e
fffffb35
00000412
00000782
ffffffa4
000001ff
00000911
fffffd4e
000002f5
fffff8a7
00000046
ffffffa2
00000118
fffffb7e
fffff7ce
fffff94f
fffffaf7
fffff9d8
fffff90a
000002ef
fffffafc
fffff7b6
fffffa57
fffffff9
fffff998
0000019e
fffff929
0000032a
0000065d
000004b6
000004b1
fffffb5f
0000028a
fffff7ed
00000234
000000e4
fffff3e6
fffff633
fffff4bd
fffff640
fffff7f8
000007ab
00000939
fffffd38
0000015e
000001ab
fffff750
ffffffa8
00000131
00000315
fffffbf3
fffff512
00000608
000002ab
00000472
fffff604
ffffff39
fffffeb8
0000048a
fffff7ec
00000894
00000334
000005bf
00000890
00000629
fffffd91
00000223
ffffff11
00000375
fffffa25
00000415
fffffae8
fffffde7
00000547
00000134
ffffff7f
0000047b
0000027d
fffffc7a
0000052d
00000c86
fffffa38
00000505
fffff71d
00000520
000005da
00000385
00000805
00000519
fffffa42
0000015b
00000661
000005a5
0000018d
0000085a
fffffa29
fffffe78
ffffff28
fffff7aa
000000d7
000006c6
fffffcd3
fffffcfd
000004b0
0000097c
fffffafd
00000024
00000096
ffffff60
fffffec5
fffffc84
fffff6cf
fffff60d
fffff6a6
fffff6e6
fffff526
fffff4cf
000002bb
00000466
fffffda2
fffff973
fffff6d6
00000768
00000a4b
0000055c
00000a3c
000015d4
000005a0
fffff7ec
fffff6a2
00000bd5
000001a5
00000127
00000679
fffff52d
00000a1c
fffff05c
fffff8f2
fffffd44
fffff82c
fffffe50
fffff785
fffffe44
fffffcf3
000004b6
00000ad1
00000781
000004d6
00000a19
ffffff3e
00000113
fffffcbe
fffffe88
fffff6e6
0000085e
ffffff1a
fffff72c
00000934
0000051f
fffff3f3
000002ed
00000b63
00000a5f
0000057c
000006c8
fffff55f
00000680
000007ee
fffffe97
0000039a
fffff6c3
00000b9a
00000398
0000041f
fffff9b0
00000ddf
00000d2f
fffffe06
00000302
00000375
0000069f
0000014d
ffffff08
fffff561
fffff88d
0000026f
000004a6
0000005a
fffffa63
000007e3
000010af
00000209
00000880
fffff9f1
fffffa81
fffffb13
fffffbf5
ffffff24
00000844
fffff399
fffffd7d
fffffdb8
00000752
00000382
fffff93d
fffffcd2
fffff743
00000560
0000033c
000000cf
00000710
fffff9ab
fffffcb7
ffffff85
fffffafe
fffffd15
0000090d
00000a30
000005ac
000008c1
fffff75d
fffff583
fffff901
fffff84b
000005e2
fffffffc
fffffa3e
fffff94c
fffffe3b
fffff338
0000081f
fffffedf
fffff906
000003e9
000003ce
00000a21
000011d0
fffff812
0000029d
000009ce
00000898
fffff2b9
fffffafa
fffff9d4
000001a5
fffff66d
00000372
0000016f
000000e5
00000129
000009fa
fffffc9c
fffff797
00000704
0000048e
fffffb23
fffffbcf
fffff77d
fffffebe
fffffa5b
00000284
00000612
0000058c
000004e5
0000038b
00000525
ffffff6c
fffffaa3
000000d9
ffffff44
000008e0
00000a32
00000822
00000754
fffffca0
ffffff4d
ffffff9a
000006ce
000002cc
000000b8
000007a0
00000543
fffffb2d
fffff996
fffff7b3
fffff67c
fffffa8f
fffffacf
fffff7f2
ffffffc9
fffff87c
fffffa2b
fffff9da
00000819
0000027d
fffff754
0000035b
00000980
00000938
0000051e
000006d7
fffff686
000007aa
fffffba9
fffffe8d
fffffe73
0000045b
fffffb02
0000065c
000006f7
00000132
0000082f
00000802
fffff932
fffff564
00000708
000004ac
000009e3
fffffae2
00000130
fffff663
fffffc69
000005e3
000006ad
000004f0
ffffef5a
fffffdc7
00000271
000005f8
fffffbbe
fffffe39
ffffff81
fffff688
fffff736
00000c15
fffff44a
000004b4
00000689
fffff927
fffff853
fffff83b
fffffa67
fffff603
fffffeb3
00000158
00000374
000006d3
00000869
00000a55
fffffb6f
00000506
00000243
0000094d
000006c4
fffffa75
0000079e
0000063d
00000152
00000966
000008d6
00000862
fffff98a
0000065d
fffffcfa
00000a66
00000dd5
fffff5df
00000731
fffffab5
000010f6
000001b1
ffffeaa2
000006d8
fffffea4
00000008
fffff783
0000055f
000002fa
fffffb05
fffffb0f
00000261
00000695
fffffb12
000003a1
fffff1c3
0000038c
fffffef7
00000afb
0000016d
000008a9
fffffa2d
fffff6fc
00000230
0000086c
000000c9
00000103
00000e78
fffffa44
0000068d
000001fa
000002c5
fffffc44
fffffc70
fffffa5d
000004f3
00000735
fffffe5a
0000053d
00000657
00000662
00000394
fffff5ad
fffff786
00000612
fffffa0c
000004fc
000006bb
0000088a
fffffde4
000009e4
fffffbb5
0000004e
0000071a
000004fc
00000673
fffff393
fffff3a7
fffff7be
fffffe8f
fffffc29
fffff5f5
fffffd08
fffff6da
fffffaf2
000004c4
0000015e
fffff35b
000002a4
00000016
000001fe
0000079b
0000040a
00000846
00000119
000006df
fffff5b3
000006d1
fffffbab
fffff548
fffffd48
00000675
00000089
fffff892
0000039e
ffffff75
0000093b
00000783
00000200
00000453
fffff5c1
000008a9
0000058f
00000215
0000018f
0000024e
fffff9b5
000009a9
fffff99b
00000649
000004c1
fffff63d
00000385
fffffb7a
00000154
fffffd20
00000118
0000008f
00000a4c
fffffe88
00000664
ffffff79
fffffe5c
00000464
00000253
000001c5
0000050e
00000a2e
fffffede
00000471
fffff76f
00000596
00000186
00000afb
fffffd5d
00000842
000000bf
fffffb45
00000514
0000018a
fffffb82
fffffc5c
ffffff66
00000165
fffffdb0
fffff74a
fffff906
fffff743
000007d4
00000ab0
00000632
000004ac
fffff80c
fffff5b1
0000050f
fffff95e
00000a82
fffff777
00000b11
000003fd
fffffcd6
00000ee9
fffff608
fffff881
fffffcac
00000106
00000816
fffff61e
000007d0
0000065b
00000331
00000406
0000002c
000007ba
000006fb
00000a68
fffff76d
fffffd74
fffff846
0000059e
00000466
fffffe33
fffffe14
0000020e
0000016d
0000083c
fffffbcf
000003cb
00000154
fffffec7
00000980
00000462
000001e1
00000243
ffffff62
fffff8a7
00000ee1
00000870
fffff721
00000027
00000794
00000b7f
ffffeee9
fffff83a
fffff82e
000008c5
fffff55b
fffff7fd
fffff9e6
fffff593
fffff69a
00000a65
000008cb
fffff7b5
fffff74b
fffffbfc
fffff713
fffff6ce
000006d3
00000068
000004fb
fffff9ee
00000a1f
fffffb7d
fffff96f
000004dc
0000031d
0000048a
fffffdae
00000730
fffff8dc
00000370
fffffdae
fffff92d
00000830
fffff96f
0000009e
000004ba
0000099e
0000013a
fffffb26
00000297
fffff632
000006cf
0000020e
fffff5d4
ffffff7a
000005e0
fffffbe7
ffffff7f
00000780
fffff4a2
ffffff98
0000020a
ffffff5f
fffffd07
ffffffe9
0000006e
fffff90d
fffff97d
0000049a
fffffdf4
00000a37
000005ac
fffffe4a
00000370
fffffa3b
000007e2
fffffb62
00000581
000001ff
00000807
fffff940
000004ff
ffffff34
fffff95b
fffff964
000007d6
fffff5ab
00000274
00000a23
000002f8
0000052e
ffffff47
00000477
00000b43
fffff865
fffff509
00000958
fffffaec
000007fa
00000580
fffff928
00000036
fffffeae
0000052f
fffffa0c
fffffdb5
000008b6
fffff6e5
fffff595
00000488
000005e2
fffff812
000004dd
fffff87a
00000a9d
000006bd
000003c3
00000106
ffffff82
000000ed
00000528
00000307
00000603
fffffa34
000005e1
fffff96a
00000476
fffff9b5
000004cb
fffff634
fffffaa5
00000777
fffff9b6
fffff648
00000213
fffffaee
00000022
fffff6a5
000002b6
fffff70e
fffff957
00000930
00000247
fffffc50
ffffff4b
00000a95
fffffa74
00000230
fffff810
fffff656
fffffab0
fffff81e
fffff990
fffff5a7
ffffffe5
fffffaf7
fffffd6b
00000180
fffffc05
fffffc40
fffffb95
ffffffcf
fffff899
fffff4ac
000006aa
fffff82c
fffffeb2
00000805
00000014
000001a0
fffff788
00000599
fffff56f
ffffff49
fffffc8b
fffffc24
fffffa2c
fffff6e2
00000637
00000685
fffffe7a
0000090b
fffffa06
fffffe87
000005c5
00000978
fffff780
fffffe71
fffff5f8
0000021c
00000b09
fffff8b8
00000279
000004d0
000003af
ffffff45
00000220
0000072c
fffff9d3
000005a8
00000280
fffff533
fffffc28
0000040e
0000002d
fffff601
fffffabc
00000360
fffffcd3
ffffff10
fffff889
fffffa20
fffffc01
000002b6
00000251
000008b7
fffffce8
fffff4cc
000000aa
ffffff07
fffffda2
000007aa
00000801
00000505
fffffc17
0000059b
fffffdf6
fffffd14
fffffba5
000004d2
00000647
fffffcfc
0000054f
fffff79a
fffffddf
00000326
fffffb36
000001d2
fffff9ff
00000308
0000035a
fffff693
ffffff8f
00000a29
000001d4
000005cb
fffffd64
0000001c
fffffd97
fffffac3
fffff780
00000555
0000005d
ffffffed
ffffff28
fffffb23
00000569
fffff80d
0000029c
fffff4db
fffff845
0000040c
000002d7
fffffdf5
fffff868
ffffff68
fffff6fd
fffff14f
00000129
000004d4
fffff8a7
00000738
000004b6
fffffac6
ffffff16
fffff554
fffffb40
fffff709
fffffb4c
000002da
0000079d
fffff795
fffffd68
fffff322
fffff496
00000684
fffff812
fffff863
000003d9
00000182
fffff9c4
fffff751
00000056
000003c5
fffff9f4
0000082f
00000a8e
ffffff73
fffffb3d
fffff643
0000038b
000003c5
fffffdcb
00000627
00000862
00000443
fffff6c5
000003ba
fffffc60
fffff7dd
fffff7f1
00000759
fffff7d9
000005e1
000009ca
00000578
0000047c
000000b8
00000188
fffffda5
000005b4
00000414
00000c50
00000634
0000081c
00000939
00000b15
fffff7fd
fffff6ad
ffffff56
000004eb
000005b7
000001d9
ffffff99
000001ed
00000419
00000cd6
fffff845
00000462
fffffe94
00000717
ffffff73
000009d9
000006c4
ffffff55
fffff749
fffffb48
fffffec8
000007c8
fffff63a
00000811
000002e3
fffff65b
000007d0
000004be
fffff7ce
fffffb5d
fffff816
00000a17
fffffc24
fffff56a
fffffb9e
fffff691
fffff82d
000003a0
fffffcb6
0000087c
fffffd1f
00000664
00000103
fffffbe2
00000a7d
fffffde3
000012d6
00000ec8
ffffff09
000006d6
000002a6
000008b8
000009ea
000003b1
00000a3e
ffffff2a
00000445
0000028d
ffffffba
000008bb
00000562
0000045d
00000db4
00000635
fffffe84
00000ee2
fffffe29
00000d71
00000581
00000b63
00000b10
000004af
00000a38
fffffc24
00000b9d
0000023b
0000023f
00000081
fffff793
00000589
fffffca2
0000054c
000009a1
fffff8b5
00000ae5
000008e5
00000efa
00000f5b
00000423
fffff98b
fffff5fe
00000322
000003a4
fffff7a0
00000a0e
00000793
00000c2b
0000052f
00000567
00000cc0
000006e7
0000126a
00000176
fffffe1e
fffffc16
fffffe62
fffffaf8
00000b5f
0000008a
00000e50
00000011
00000782
00000de2
00000527
00000569
00000dca
0000016a
000005e4
000006f8
fffffcb6
fffffa91
00000739
000009ec
0000057a
00000305
00000775
fffffc9b
00000bea
00000143
00000d00
fffffbff
fffffa74
00000884
fffffa86
0000046a
fffffb9d
000009af
fffffb1b
fffff5d8
fffff9dc
ffffff0b
fffffd91
000000f1
fffff9d9
fffff6d7
fffff5ca
fffff24b
00000888
fffff95a
ffffff22
0000007b
000003bf
fffff76f
000000c3
00000b4b
00000377
00000a54
000000b6
000000da
0000009d
000005a1
0000084b
fffff62d
0000048f
fffff4eb
fffff617
fffff33a
fffffa7b
fffff5a6
fffffe0a
0000076b
0000047d
fffffdf1
fffffe36
00000b79
000001e5
00000630
0000086e
fffffdc4
00000dea
000004fe
fffffa5c
fffffb6f
0000062c
fffffe7e
fffffa1d
fffffb51
000007df
000008bb
fffff669
00000646
000000bb
000005eb
00000930
fffffc25
fffffb60
00000cff
ffffff36
00000145
00000bb2
00000f87
00000ad2
00000912
fffffc99
fffffde3
ffffff01
000006ac
fffffeba
fffffffc
00000efe
00000faa
0000035b
fffffbfe
000002d2
000006df
00000253
00000673
000006e7
00000054
000006bb
fffff4d5
000001cb
000000a3
00000a0c
fffffd38
fffffff4
0000023a
fffff3dd
0000076c
000002b5
ffffec99
fffffdfb
fffff174
00000392
fffff8bc
fffff035
fffffa9c
fffff8e7
fffffa64
fffffa82
fffff40c
fffff442
fffffcd1
fffffa26
0000057f
0000041c
00000982
fffff901
fffff54e
fffffd06
ffffff2f
00000619
00000316
fffffa25
fffff9ff
000003ae
00000628
00000484
00000a69
fffffdd7
fffff5ab
ffffff4e
00000375
000009c9
00000378
fffff625
00000995
fffff71d
0000097a
00000585
fffff602
00000479
fffffe18
fffffabb
0000058d
00000cde
000005ad
0000083f
fffffe39
000010a6
00000af5
00000bd8
00000dbd
000002f7
0000030a
fffff703
00000776
fffffe7b
fffffd96
fffffa67
000006d4
00000483
0000061d
000005ec
0000018c
00000047
000002d9
fffff933
0000017e
00000362
fffff520
fffffc9a
00000227
000006ff
fffff7ed
000002d8
fffff399
fffffc95
fffffb9e
fffffadc
00000223
fffff6d3
fffffc8c
fffffc0c
fffffabd
fffff392
0000037a
fffff9bf
fffffaa8
fffffc7f
fffff567
fffff799
fffff9ec
000005f6
00000517
fffffc06
fffff40b
fffff904
fffffc06
00000385
ffffed05
fffff640
fffffbba
fffff65c
00000102
fffff591
fffffd9a
fffff509
fffffb65
fffff2ca
fffffdb8
fffff143
fffffe70
000004d8
000002be
fffff893
0000056a
ffffff0f
fffffa1b
fffffa7c
fffffa06
fffff7eb
fffff9ef
fffff93f
000003f0
fffff594
fffff5a9
fffffa06
000007fc
fffff64f
000004cb
fffff841
000004d1
000006c5
fffffae1
fffff628
00000259
fffffeb9
00000207
000001a8
000009a1
0000025f
000004cb
0000037d
000008c5
fffff875
00000bc6
00000c13
000005ec
00000247
000008a8
000003a2
00000714
fffffaa3
00000204
000003de
fffffb34
fffffb7b
fffff48f
00000106
00000611
fffffd4b
000005b8
fffffbf3
fffff5d1
fffffe14
fffffc05
fffffa45
fffff411
00000206
fffffcd0
fffff786
000000e4
000002ad
ffffff9b
fffffd13
000005ef
000008ff
fffff517
ffffefbc
fffff385
fffff2db
ffffffb9
000005aa
fffff374
fffffcf0
ffffef37
fffff6f8
fffff714
fffffa47
fffffc17
fffff5e2
fffffd8c
000001f3
fffff9ab
000000ef
fffffb35
000009f5
fffff7c4
000007f9
00000143
00000abe
fffff701
fffff96f
000000df
fffff5d9
fffff6ff
00000968
fffff5d2
00000842
fffff8dd
00000144
fffff64b
ffffff6e
fffffe85
ffffffa7
00000533
0000016b
000008bc
fffff784
fffff94d
fffffbca
fffff95a
00000516
000005c3
fffffeed
fffff644
fffffd6c
000000a4
fffffadb
fffff983
000009af
fffffa29
000005aa
fffffb35
000001c1
fffff551
00000513
fffff7f8
fffffe1c
fffff745
00000722
000007fb
fffffa5f
fffff6b1
fffffd0d
fffffa89
fffff9ad
0000071d
00000264
0000074a
00000197
fffff6ee
fffff607
00000618
fffff766
fffffbed
fffff5aa
fffff85a
000001c8
00000589
ffffff83
fffffad5
ffffff8b
00000345
fffff981
fffffb55
fffffc6d
fffff707
00000169
000006da
00000542
00000218
fffffbeb
fffff5b0
000009c1
00000753
00000607
fffff7b0
fffff94e
fffffcc1
fffffacc
fffff8ab
00000a92
000009ef
fffff791
fffffa0d
000008ca
0000026a
00000157
fffff7b5
fffffe12
00000996
fffff657
fffffef4
00000708
000002c4
fffffe85
000003ca
fffff5e4
00000a53
fffffe3d
00000a86
fffff5cf
0000010b
fffffa4e
fffff779
00000289
0000074e
fffff79d
000008d7
fffff734
fffff5c3
fffffc57
00000b8f
0000016e
00000639
fffffc8d
fffff7c9
fffffb2c
00000b8b
00000136
00000e43
00000a06
0000076c
fffffbe3
00000c8a
fffffb08
000007da
00000943
0000096e
0000089c
00000dac
0000088e
00000c3a
00000407
fffffe0c
00000647
0000073e
00000951
fffffdfe
00000618
fffffa5e
fffffe17
fffffb2b
00000338
fffff72f
fffffba0
fffff6c9
000005e3
0000056a
00000023
fffff6cd
fffff788
ffffff32
fffff71b
fffff714
fffffc7e
0000096d
fffffbb9
00000498
fffffaba
fffffc46
000005f7
000000a1
fffffb3d
00000739
fffffcd2
00000adf
00000673
00000015
000000c2
fffff7a4
fffff617
00000347
fffffbef
fffffff2
fffffd66
fffff784
fffff9ce
00000462
00000a24
fffffd19
ffffff75
0000058a
00000880
fffffb55
00000808
fffffa85
fffffcc9
fffffc33
ffffff26
fffffa4b
00000138
00000655
fffff54e
fffffd4b
fffff670
fffff9d9
fffff574
00000c83
ffffffec
fffffde7
0000012e
fffff756
00000621
000004fd
fffffa5c
00000224
fffffad7
00000820
fffff60b
fffff80a
00000596
000007fa
00000060
0000053f
000009be
fffff758
0000076e
fffffe5b
000000a3
fffffabb
000009c3
ffffff3e
fffff98d
fffffe76
fffff988
fffffd17
fffff1eb
000005f6
fffff568
fffff97b
000004ae
00000018
000001a5
fffff4b4
fffff28d
000003b6
fffff584
fffff7a9
fffffedc
fffffe5c
000008b8
000002a6
fffff8ba
ffffffbd
fffff7bf
fffffbf3
fffffe72
00000525
00000a20
fffff79a
fffff729
fffff75f
fffff808
fffffb9b
00000296
fffffa3d
000001c1
fffffea6
fffffbb5
00000a6d
000007b7
ffffff34
fffffa35
fffffac9
0000093d
fffffa3c
fffffae3
fffff6ea
fffffc8d
000007b3
fffff870
0000025a
ffffefea
fffff6d8
fffff346
00000681
000004d7
fffff3c1
fffff887
fffff9ce
00000a75
ffffff22
00000461
000004c6
fffff9c3
000000b2
00000724
fffff65a
000000a8
fffffe66
fffff67a
fffffe7c
fffffe91
0000085d
fffffad9
fffff7a5
ffffff6f
000000a3
fffff927
0000030c
000004a1
00000077
000000e2
0000027f
00000c23
fffffcdd
00000a8d
0000084a
ffffff99
00000ba5
00000078
0000030a
ffffff95
fffff608
fffff861
000008cf
00000602
fffffa83
000001a0
00000c60
00000382
000001aa
00000820
fffffe92
000004a5
000008f6
0000042f
fffff536
000000b1
000007ab
000009ff
fffffea7
0000055d
0000098f
00000126
000009bc
fffff681
fffffa8e
fffffd2d
fffffb50
00000704
000005c9
00000472
ffffffdc
fffffa12
fffffc78
fffffbd5
00000928
ffffffa8
0000008e
00000597
00000815
00000532
000007c4
fffffe72
fffff4d7
ffffff97
00000035
00000174
fffff458
fffff5d5
fffffc1b
fffff953
fffffc52
fffff6ef
fffffd6d
fffffb7f
00000595
000003ca
000002ce
00000959
ffffffe8
fffffeec
fffffb66
000006b4
fffffa42
000004bd
fffff680
0000052e
fffffdaf
fffff8a2
000001da
fffff430
fffffbda
0000088f
0000073c
000003c0
fffffd25
fffff922
fffff4e3
00000340
0000051d
00000217
fffff659
fffff332
fffff465
fffff807
fffffb36
000009e3
0000074e
000003c6
ffffff8b
0000045e
fffffa7c
fffffedf
fffff66d
00000571
0000045d
fffffef9
fffff0cb
000000aa
00000878
000004d9
fffff3ca
fffff76e
00000376
0000026b
fffffb2c
ffffffe5
0000049e
fffffa81
fffffca7
000008a2
00000c24
fffffe95
fffff828
00000687
00000776
ffffffb9
fffffd3f
000003cc
ffffff9f
000000cf
0000079d
fffffdf1
fffff4c0
0000012a
00000723
000000ba
00000138
fffffe04
fffff94a
fffff22f
fffff482
00000361
fffff8a5
fffff53d
000004f0
00000215
000000c3
0000006a
fffff430
fffff019
fffff994
0000035f
fffff2ca
fffff2e1
ffffff58
fffff3dd
ffffff36
000002b5
fffffeba
00000352
fffffa4f
fffffc17
00000529
fffffdfa
000008b7
000007ed
fffffac5
fffffed1
000009bb
fffffe81
00000200
0000027a
00000087
fffff8e8
fffff608
fffffe75
fffffc72
fffffa6e
0000050e
fffff4be
fffff862
fffff683
00000378
00000807
fffff996
ffffffc1
000009e7
fffff667
fffffef7
00000193
fffff9a8
0000077d
00000631
000002ac
00000695
fffffc43
000002bc
ffffffc5
00000b44
00000b1c
00000323
0000071d
fffffd8e
00000b2f
00000c12
fffffbab
ffffff46
0000034b
fffff3e3
000000aa
00000771
00000397
fffff8b1
00000092
fffffede
fffffad4
000007b4
fffffd87
fffffe2e
00000984
000005f6
000000de
fffff2d7
fffff25d
000000d9
0000042a
fffffca1
000004f2
000005e6
fffff9c6
fffff6c5
fffffafc
fffffad3
00000217
00000177
0000052e
00000545
ffffff6c
0000052a
00000638
00000189
00000744
fffffb2b
fffff732
0000004c
00000ab1
0000050f
000006c0
fffffd31
00000f41
00000d2b
fffff6f4
00000898
fffffdd3
fffffe09
00000888
0000017d
000005bf
fffffd64
fffff939
fffff4a9
fffff73a
fffff530
000004c7
ffffff67
fffff921
fffff735
fffff748
fffff776
00000432
0000018d
000008cc
fffffe6b
fffff887
fffffc4c
fffffd5c
fffffa2d
fffff862
000001e0
000002c2
fffffc47
0000028b
ffffff6b
00000567
fffffcd4
000005df
fffffa62
fffff8a1
fffffae1
fffffdc5
000005b9
fffff806
fffffe99
fffffee8
fffff903
fffffc9c
fffffa7e
fffffdb8
fffff71a
fffffa6d
000003cb
fffffe25
00000671
00000348
fffff4db
000005db
0000096a
00000914
fffffb0a
000000e1
000002e3
fffffa87
fffff7d2
00000334
0000075c
00000486
fffff628
000001d0
00000850
fffff665
fffffd24
0000057d
000007ad
0000080d
fffff799
00000452
fffffeb1
000004df
00000382
000005c4
fffffc41
fffff9b5
0000078b
fffffc72
fffff567
000000e3
fffff9d9
00000625
00000a13
fffff97d
000008e4
00000542
000006f9
00000650
00000520
0000091a
fffff807
00000054
00000675
00000227
fffff9be
fffffad6
000000d1
000000d9
00000288
00000110
000003e6
0000093d
00000613
00000a44
fffffbd2
00000382
fffff62e
fffffe0e
fffff5f1
00000454
fffffb72
000005b9
fffff5e8
fffffc92
fffff80f
fffffc3e
fffffa8c
fffffc4f
00000a88
00000203
fffffacc
0000055a
fffffead
fffff8e4
fffff9f6
0000054d
0000074f
fffffd57
000006d0
ffffff38
000000d9
000006f6
fffff8dd
000005b9
fffffbcb
fffffd96
00000435
0000091d
fffffa5c
000001f3
fffff4e1
fffff5f2
000008d4
000004ee
fffff5b2
000002c6
fffff9ff
000001c2
000001dc
fffffef5
000006a5
000006ff
fffff6ef
000006ab
00000faa
fffffa9e
00000456
000008b6
00000800
00000351
00000dcc
fffffd7e
00000538
00000870
fffffe42
ffffff71
00000c53
0000053b
00000cda
0000087b
0000070b
000006fe
00000737
00000a70
fffffe14
00000d8d
fffff722
fffff8b6
fffff7ca
00000b58
00000a65
fffffe23
fffff576
00000aed
00001013
0000063f
00000c4b
00000427
00000d2a
00000be4
00000041
fffff7c2
fffff9f5
fffffd9c
fffff935
fffffee3
000009ec
000002db
000003ad
00000b24
000003cb
00000641
0000012e
fffff5cf
00000588
fffffc48
0000089f
00000460
00000298
fffff42b
0000041e
00000079
fffff403
00000034
fffff49a
000001d5
000006b4
fffff683
000006ab
000004ab
fffffc80
fffff870
000006f6
fffffe13
fffff29f
fffffe15
fffff8ae
000000e8
fffff84d
00000718
0000090a
fffff8cf
0000072d
fffff9ad
00000265
000004be
ffffff8d
fffffea2
00000bbf
000008c8
00000216
000009a8
00000579
fffffb5f
00000b4e
fffffbd6
fffffef2
000000f1
00000230
fffffb33
000006f5
fffffa07
00000899
ffffff0c
000001f8
0000065f
00000857
00000db1
fffff9b8
fffff9bb
00000ada
00000765
0000038b
fffffecc
00000697
fffff938
000000df
00000371
00000728
00000c24
fffffc4a
000002de
fffffd5e
fffffe45
000003c4
0000014e
0000096c
0000029a
fffffdd1
fffffbed
000002dd
00000286
000001b7
fffffd46
00000a8a
000007d4
fffff6f6
fffff984
00000a90
0000065b
fffffafb
fffff5a7
fffffe82
00000098
000003f7
fffff55f
fffff960
fffffe52
00000544
fffff9a9
fffff8b5
000008d7
000000b0
000002d1
000007e0
fffff853
000002fc
fffff769
0000055f
00000ad7
0000011b
0000038f
fffffb9c
0000002a
000009ab
00000773
00000348
fffff9b8
fffff683
000003e3
fffff88e
000003ef
00000c53
fffffbd6
000004b8
fffff6bf
00000734
00000972
fffff56a
00000348
fffff86b
fffff650
00000127
fffffa46
fffffd00
fffffc70
000008d4
000004eb
fffff71a
000001a1
000005e9
00000a3d
00000120
fffff60d
fffffccb
0000006f
fffffcc9
fffffec0
00000a45
ffffff63
0000046a
fffff673
00000947
ffffff56
00000147
00000551
0000060b
fffff5fd
000002dd
00000872
0000059e
0000015a
fffff681
fffff5b8
000003ed
fffffd5e
fffffd2b
fffff63f
fffff9bb
fffffbed
0000032a
fffffae0
000007fd
0000062c
fffffd6b
000002cf
fffffb71
fffffea4
fffffb0c
fffffca0
00000958
fffffd32
fffffcce
000001b8
fffff29b
fffffc17
fffff7b8
fffffb35
000008f8
0000035c
0000090b
00000323
00000258
ffffffab
ffffff7c
000007ab
000005de
00000639
000000f5
fffffe36
ffffffd8
ffffff77
000000e3
00000355
0000002d
0000095e
000003c6
fffffed7
fffffdb2
0000044d
00000766
fffffca8
0000030c
fffffd07
fffffb6e
fffff3f2
00000811
00000218
fffff3d2
fffff2e5
00000208
fffff669
00000085
fffffc2a
0000007f
000008c9
00000557
00000945
fffffa0e
000005f5
fffffec3
0000060d
fffffc1d
0000075f
0000064d
fffff681
00000836
0000058b
000005c7
fffffeab
fffffc5e
0000050d
000000d4
00000199
fffff89d
000001fd
fffffae8
fffff6f6
000008c8
fffff5f5
00000823
fffffae4
0000001f
ffffffa7
0000011f
000006bc
fffffa1b
00000ad8
fffffc93
000007aa
00000c88
00000bde
000006af
0000094d
fffff8ff
fffffec7
00000b63
00000aeb
0000063b
00000587
000009b1
0000027a
0000019f
0000048c
00000b72
000008ce
fffff960
fffffe35
fffffec7
fffffa0e
0000091d
fffffeea
fffff47b
fffffa32
fffff9a0
00000084
00000898
00000482
fffffe0c
00000322
fffff989
fffffeec
000003b7
fffff7e5
fffff6c0
0000036e
000006d2
00000a2d
fffffe38
0000007b
fffff642
000001c2
fffffa29
fffffb31
0000031a
000003b1
fffff7c0
fffffb8c
fffff78c
fffff61e
00000450
fffffb3e
fffff587
fffffebf
0000003b
fffff5bf
fffff956
00000410
fffff547
fffff671
00000957
0000039b
000009ca
0000089d
fffffd38
fffffd21
000007d9
00000124
000005d9
fffff964
fffff7f7
fffff820
00000678
000005a8
00000727
0000041e
000004ee
00000540
fffffe0b
000006bc
00000540
0000077a
00000420
000001a9
0000034e
fffff720
fffff931
fffff9ff
fffff8a9
fffff856
fffff580
000006a6
fffffcba
000002fb
000006e4
000006be
00000518
fffff8b1
fffffd2c
00000350
000009cb
00000933
00000a78
000001e4
00000443
fffffbfc
ffffff9a
00000025
00000c87
00000845
00000074
000007c6
000005d3
000005b3
000009cd
00000524
fffffbb9
ffffff06
00000332
fffffa59
fffff4d0
0000017e
000000dc
fffffb95
fffff5de
00000373
fffff9b0
00000217
00000057
00000723
000009c3
0000075a
00000a05
fffffdad
0000081e
00000514
fffffa12
ffffff3d
fffffe91
fffff76b
0000078e
fffff9e9
fffffffa
fffff86d
fffff57d
fffffec0
0000007a
fffff9b3
00000126
fffff8ca
fffffd40
ffffff20
fffffb5f
fffffd27
000006f2
fffffe4f
fffffe3d
0000076a
00000000
fffff55b
fffff568
ffffffce
00000532
fffff65a
fffffca2
000005d2
fffff817
fffffc12
fffff94e
fffff972
fffff973
0000052b
fffffb13
0000009c
000001c5
fffffba9
fffff56f
fffff816
ffffffb0
fffff63a
fffffe22
00000143
fffff67a
000009eb
00000154
fffffb84
00000662
fffffdb7
00000285
0000075f
ffffffb3
000006b8
000009a6
fffffaa9
fffff82a
fffffb70
fffff815
fffff770
000004f8
fffffee1
fffffa8f
fffff6cb
000005f5
fffff7e6
fffffde3
0000028b
fffff7fe
fffffd8f
fffffd77
00000072
0000098e
fffff6c7
00000376
fffffafd
fffffa8f
00000425
ffffff10
0000004f
fffffa0c
00000433
00000491
000002b4
000003a0
000007fa
0000023b
0000025b
fffffa40
00000099
00000c5d
000000ff
000002ca
0000018e
00000829
00000227
00000a87
000002c1
fffffa23
fffffc3e
00000e1c
00000b1c
ffffff2c
fffff754
fffff8a3
fffffe86
ffffff37
fffff701
000001b8
fffff5af
000005dd
fffff974
fffff84d
00000a42
000006e3
fffff779
fffff9ce
fffffc8f
ffffffcb
fffff93e
00000a62
000002ce
fffffa82
fffffe48
fffffc6e
fffff6eb
000003ed
00000309
00000a76
fffff712
000005e8
00000209
fffff911
00000194
fffffbaf
fffffbc8
fffffcd1
00000416
0000026d
fffffe03
000000c5
fffff5fb
000004f6
fffff5fc
fffffb84
00000049
fffffbb6
fffff639
fffff64c
fffff89b
fffffd6e
000002b1
fffffdad
fffffc78
fffffe25
000008b5
fffff855
fffff80c
0000033f
0000035f
fffffb26
fffff426
fffffac4
fffff7fb
000003e7
00000309
00000477
0000065b
00000329
fffff799
00000730
fffff574
fffff6eb
fffff744
fffffebb
0000042c
fffff483
ffffff97
00000892
00000470
00000983
0000049a
000005ac
00000886
0000056c
000000b9
fffff922
00000707
000008ff
fffff80b
000005ab
fffffb3f
000004ea
fffff880
ffffffaa
fffffb35
fffffb9f
fffff9ba
000002e4
00000166
fffff93e
fffff6f9
00000646
00000597
000009a8
fffff8a4
000005ef
00000030
fffffb60
fffffb50
00000112
fffff954
00000126
fffff535
000002bb
000002df
00000602
fffffb82
000004fe
fffffcbb
000009c7
fffffd94
000009b6
fffffd2d
000002e8
00000905
fffff7a1
fffff7ff
000004b3
00000961
00000605
fffffbf8
fffffcc8
000006d2
fffffea7
0000085e
00000695
fffff6eb
000007e6
000004e8
00000f67
00000b11
00000ad0
0000063a
00000a24
00000ce3
00000039
00000ba5
fffffd62
00000238
000009ea
00000b96
fffffc3c
000009bd
fffffc80
000001ae
fffff6b2
fffffaa9
000009ce
fffffc88
00000135
fffff87e
fffff4d3
fffffac0
00000336
0000079d
fffff498
0000094d
000005b0
fffffb10
fffffbea
fffffc75
fffff7d7
fffffb7b
000001bf
00000785
000005c2
00000905
fffff597
fffff5e9
fffff569
fffff965
00000418
fffffb17
fffff624
00000233
fffffd5a
000005eb
000003c4
000003ee
000002f2
fffffa6d
ffffff6c
fffffbcd
ffffff46
fffff854
fffff92f
000000e5
00000471
fffffdc2
fffff972
fffff73d
fffff6a4
fffffa6a
0000096f
0000071a
fffffba0
fffff5ef
00000023
fffffd39
0000021b
fffffcc1
fffff5c4
000008b6
000005d2
fffffd63
fffff76c
00000385
000003d2
fffff635
fffff0d3
fffff907
fffffdd2
fffffe3c
fffff424
fffff4cd
000002d0
00000800
000007e2
00000796
fffffa09
fffff3ef
fffffdaa
ffffff20
fffff25c
00000374
00000179
00000099
00000789
fffff443
fffff6a5
000006d4
fffff6b6
00000636
000003fe
fffff9d5
fffffdae
fffff1b3
fffff92a
fffffd99
fffffb8a
fffffdd2
fffffdce
fffffe3a
00000138
ffffffb1
fffff839
00000016
fffff7de
00000328
fffffc01
fffff5e3
00000675
fffff433
00000635
fffffd76
ffffff7f
fffff80b
0000013a
000004c2
fffff890
00000548
000003e5
00000a93
00000a36
000006ab
fffffd53
fffffd4f
ffffff82
0000024a
000005df
fffffd01
fffffb9b
0000032d
fffff686
0000082e
000000f5
00000563
fffff8b3
fffff644
fffffc23
ffffffd2
fffff7a0
fffff9f8
fffffb37
0000084d
00000a23
00000036
00000736
fffff7f8
00000075
fffff9b2
00000578
fffffbb8
000004cc
fffff62a
fffffad9
000004e6
fffffe31
fffff5d0
000008bc
000009fd
fffffb14
fffff8b1
fffffdf7
fffff5da
0000014b
fffff933
fffff8c6
fffff29c
0000075b
0000081c
ffffff5d
000000f3
000005a0
00000982
00000116
ffffff33
fffff9e5
fffff78c
fffff75e
00000351
fffffbdf
00000636
000004c8
fffffd50
00000672
000006ad
fffffe85
00000d0d
fffff2a6
00000408
00000607
00000568
fffffd5b
fffffe9d
0000040f
fffff70f
000003aa
000003bd
fffffee5
0000068f
000004fe
fffffb7f
00000a50
fffffbaf
fffffa92
00000843
00000785
fffff6aa
fffffea0
000008c7
000000e5
0000006b
00000a28
00000429
0000018c
fffffb7b
fffff8f6
ffffff79
0000098d
fffffa71
fffff5e6
fffffa82
000005ba
fffff8fe
fffff92e
00000077
fffff900
fffff62a
fffffc82
000006b2
fffffbf3
fffffb29
00000585
0000032e
00000104
0000087a
fffff589
fffffefc
fffffeeb
00000ab2
00000474
fffffcec
000000e7
fffff5ca
fffff7f0
00000616
0000097b
00000917
000006e4
fffffd51
fffffefd
0000091d
00000049
fffffc07
000008d2
fffffe91
0000047e
000003c3
fffff8cc
fffff5c1
fffffd9c
0000059c
fffff742
fffff0e1
fffff5fd
fffff8e5
0000058e
fffffa98
fffffa50
fffff2c4
00000662
fffff9f4
fffffd06
0000030e
fffffdbe
00000bea
fffff5a8
fffffb61
000000e9
0000093e
0000072a
0000021b
fffffc20
0000041b
fffffc12
fffffc85
fffff9c8
000003c3
fffff9ce
fffff405
ffffffa3
0000031f
000008a5
fffffe60
fffff7c3
fffffbbf
00000407
00000306
000004ef
000007ea
fffff829
fffffb43
00000553
00000868
0000017f
0000086b
fffff87e
ffffff98
fffffc6b
fffffef1
00000351
000001d2
fffffeb4
fffff8c1
fffffb51
fffffcc8
fffffa9b
000004ce
000003dd
fffff3ba
00000151
fffffb66
00000001
0000098a
fffff855
fffffcd7
fffff4f6
fffff743
fffff871
fffff63b
0000003f
fffffa7b
ffffff6f
0000084e
00000525
000001a4
000009e7
fffff9fa
00000686
fffff818
fffffda5
0000022d
fffffca6
fffff745
fffff66b
fffff884
000005c9
fffffff5
0000005b
0000010b
fffffe13
000005ff
fffff7a9
00000601
fffff8db
00000807
fffffcef
fffff5aa
fffff906
fffffa04
fffffb8e
000007d9
000006b1
fffffc03
000004e2
000002de
fffff55d
00000088
ffffff07
fffff6fe
fffff9bd
fffff960
fffffebd
fffffb5a
fffffc65
000007af
0000086e
0000042a
fffff697
fffff5dd
000007a6
0000092a
fffff696
00000a28
00000544
fffff810
fffff547
00000048
000000a1
fffff65d
fffffb9d
ffffffac
000002bd
00000856
fffff938
ffffff95
000001a1
00000899
000007a2
fffff88a
00000920
0000011a
00000181
fffffe81
00000a9a
00000a8f
fffffb16
fffffb57
000006d5
0000061d
fffff7ec
000007c6
fffffefb
ffffff61
00000593
00000b17
000007a7
ffffff55
000004bc
000002da
fffffd24
0000036b
fffff593
000003d1
fffffb08
00000160
fffffc5a
fffff760
fffff784
fffff700
0000069b
fffffd42
000006a9
fffff547
00000415
000006ad
fffff93b
0000047f
fffffb35
00000819
00000047
0000095b
0000043a
00000130
fffffbbe
000004e3
fffff90d
fffff4a8
fffff632
fffffa5b
0000057d
fffff88a
000002db
fffff844
fffff4b9
0000036f
0000039f
fffffe4a
000002b0
ffffff63
fffffa6c
00000217
000003c6
0000040d
00000d24
fffff56c
fffffb43
00000714
fffff754
fffffab1
fffffe5a
0000071f
000002fb
000004df
0000021b
000000df
000004b8
00000471
fffff8df
000000cb
fffffe0e
00000aca
0000063b
0000076e
fffffe6c
fffff88c
fffff975
fffffd23
000003ea
000006d8
00000202
00000144
fffff846
000009d9
000003de
fffffe51
000009f6
000003da
fffffc78
000000de
000001c3
00000353
000001b3
000002ed
fffff319
fffffe3a
00000887
00000456
fffff9d7
fffff881
fffff45f
00000676
000004c7
00000326
00000c8b
000007b3
00000378
fffff621
ffffff88
fffffd93
fffff6f2
000008af
fffff71c
fffffad3
fffffb13
fffffa03
fffff8a6
00000132
00000727
fffffb64
fffffebb
fffffc6a
000005c3
0000009a
fffffe19
000003d2
fffff6e8
fffff5c2
ffffff4a
00000461
00000815
000000b2
ffffffe5
fffff73c
fffffd94
fffff9f3
000003f2
fffff7ae
fffff792
000004c2
00000501
fffffccc
fffff846
fffff68a
00000557
000001d3
00000a04
00000416
fffffabf
0000070f
fffff9e9
000001a2
00000322
fffffd8d
fffffd24
fffffd0c
0000021e
00000947
fffff7b2
fffffd1d
000006a3
000000f5
fffff77f
fffffade
fffff643
fffff696
fffff922
fffff94f
fffffc5e
000001d7
00000439
000006b3
000004b8
fffff69c
000005bc
00000475
fffffe3f
fffffdef
fffffff3
0000087f
000005ee
000007fd
000002c4
000005af
000002c9
00000503
ffffff38
00000547
fffffd62
fffff66e
fffffc95
000007c6
fffff92a
ffffff17
fffff783
00000012
fffffebe
00000b48
ffffffb3
fffffa82
fffffe42
0000017d
00000723
00000c7d
fffffa9a
fffffdd4
0000088f
00000129
fffffe2e
000007f1
00001006
fffffa0b
fffff9f8
fffffce1
0000050f
00000260
fffffb6d
fffffc53
fffff4fe
ffffff60
fffff753
000000be
00000165
00000540
fffffd15
fffff898
fffffba5
00000299
fffff8dc
00000611
fffffc9c
fffffff9
fffff656
fffff9ee
fffff5e1
fffffa04
fffffe38
fffff7e5
00000275
0000092f
fffffd14
ffffff05
0000004c
fffff78f
fffff4e4
fffffdab
fffffa69
fffff992
00000749
fffffd90
fffff841
fffffb27
000003de
0000036c
00000013
fffffecf
00000872
000001cb
00000952
fffff60b
0000044a
0000045d
000001a8
fffff9cb
fffff855
000001b6
0000067a
fffff86d
fffffdbc
000004b9
0000021c
000002f7
00000948
000006d9
0000078c
fffff654
fffffe10
000000d4
00000148
000001e3
0000082e
fffffb45
fffff7d2
fffff674
fffffbe8
fffffc1d
00000790
fffffd54
fffff7eb
0000042c
fffff608
00000013
000000ef
0000014b
00000c7a
00000d85
fffffecb
00000562
000004ad
00000b7b
000003a5
000009f9
00000118
00000e29
fffffe24
00000095
0000008d
00000ea1
0000087a
00000d4f
0000037e
000005ce
00000d33
fffff8ae
00000b65
00000228
fffff9a1
fffffabb
ffffface
000003ac
000008ba
00000a06
0000042c
fffffb6f
fffff8e0
fffffccf
00000a89
fffff900
fffffada
fffffcd2
fffff8e6
fffff806
000005c0
000004bc
00000331
000002f9
fffffc51
00000969
fffffefe
00000228
fffffe42
fffff8ee
fffff698
fffffc96
0000039d
fffffcf9
fffffdcd
fffff9f4
0000082b
fffffad2
fffffc23
fffff791
0000005b
00000451
fffffb2d
000001db
fffffb9b
fffff7bb
fffff87c
000003b1
fffff80f
000002e7
ffffff41
00000466
000005c9
00000746
0000069f
00000405
00000ea6
0000044c
00000c83
00000dcd
000004bb
0000040e
0000094f
00000858
00000daf
fffffd08
0000005b
00000c2d
00000988
00000882
000008cc
0000120e
000011e6
00000ced
00000dcd
00000795
00000ed1
000005aa
00000f15
0000090d
fffff4f3
fffff96c
00000376
00000549
00000177
fffff4d0
fffff6b9
00000103
fffff464
00000248
fffff6c9
ffffff85
fffff4b9
fffff594
000004d4
00000450
00000486
0000057b
fffff5c5
fffff5ac
fffff90f
00000462
000008e0
fffffdd5
0000062d
0000086f
fffff955
00000475
fffffca2
fffffa81
0000007e
0000063d
0000095e
00000982
fffffb49
fffffff4
fffff6c8
0000070a
00000549
fffff4a7
fffffb83
00000159
fffffc7a
000006f6
fffff618
00000865
fffff93b
fffff902
fffffe15
fffff6ff
fffff5eb
fffff614
fffff636
fffffa29
ffffff94
00000206
fffff94c
fffffe2e
0000038e
000001d3
fffffd01
00000064
fffffbc9
000004a0
00000481
fffff92e
00000472
fffff75f
ffffff1e
fffff4c6
0000078a
fffff543
fffff5a2
fffff24d
00000aa3
00000671
fffff61b
fffff6b0
00000608
fffff316
000004dc
fffffd56
ffffee2e
fffffbcf
fffffcca
ffffefac
fffff974
00000107
fffffef4
0000052e
ffffff9b
fffff672
ffffef1a
fffff565
ffffff73
0000050f
00000283
fffff1c4
fffff94e
000000b8
fffffd95
ffffff22
000001ac
00000432
fffffd98
fffff732
fffffb3a
fffff2da
0000077d
fffffee5
00000340
fffff436
00000469
fffff813
00000a09
fffff823
fffff932
fffffb8c
fffff689
fffffc94
00000365
fffffe8e
0000046f
fffffe94
00000807
fffff976
fffff8a4
000006bf
fffffd3a
fffff671
000001ed
00000333
000006c6
00000533
fffff5ec
fffffbe6
fffffff9
000006ca
ffffff0c
fffff6aa
fffffb63
000006c6
ffffff6d
fffffd87
000002fe
fffffa59
000003c3
fffff752
0000085e
fffffed7
fffff534
fffff067
00000fd4
00001f2f
00001967
fffffc2e
ffffea0b
00000549
00000821
00001481
000002d8
ffffe022
000006b7
00001a63
00000623
00000f3a
000003e3
0000101f
fffffe70
fffff292
fffff84c
fffff866
000014f8
ffffffde
fffff234
000006ab
fffff630
fffff719
00000709
0000008b
fffffb80
0000094e
00000369
fffff6bc
0000047e
00000203
000003a6
00000610
fffff159
00000718
ffffff62
00000a64
000000d2
fffffbe9
fffff538
fffffe99
fffffb0e
000002d4
000006f4
fffff431
ffffff7a
fffffb25
000006c6
fffffb7e
000002e0
fffff5f2
fffff7fb
00000374
fffff618
fffffa80
fffff82a
0000002f
fffff955
00000507
ffffff46
fffff879
000002fe
ffffffb5
00000480
fffffc57
fffff931
00000135
fffffdae
00000b6b
fffffa86
00000561
0000137c
00000afe
ffffee0f
ffffe81b
00000695
000025e5
000024c6
ffffff6a
ffffe513
00000b17
0000012a
fffff535
fffff159
000003eb
00000921
ffffed57
fffff67a
0000177a
00001377
fffff3bf
fffffcc8
fffff5dd
fffffdb7
fffffef7
0000093d
fffffb4d
fffffd97
0000021b
000000df
000000a3
ffffff3e
fffff499
000002c7
fffffdf5
fffffe17
0000099e
fffffbdf
00000945
fffffd96
000003c3
00000aa3
fffffd26
000007ac
fffff736
fffffa64
000003fe
fffffdae
000004c0
000008ed
fffffbbf
fffff551
ffffea56
fffffe52
00000825
fffff32d
fffff50c
fffffb3e
fffff5ce
fffffba8
00000085
fffff1aa
00000923
00000c42
0000183b
00000262
00000045
fffffc51
00000890
fffffd81
fffff23b
fffff287
000008a9
fffffda9
ffffffa8
00000622
000004d7
fffff42d
000004ce
000006a1
fffffd07
fffffad4
fffff82e
00000a70
fffffc71
fffffae4
00000640
fffff721
fffff58a
0000084f
fffffdba
000004b2
0000076c
000003b2
00000a18
fffffc19
fffff751
fffff921
000009a8
00000970
00000173
00000f81
00000ef8
00000eb0
00000015
00000bcf
00000443
fffff910
fffff733
000007cb
fffff979
fffffc2b
0000061d
ffffffdd
ffffff27
fffff27e
00000090
fffff924
00000514
fffff3d6
000010ca
ffffff4e
fffffe17
000007fc
00000e35
fffffc3e
0000020a
fffffb86
00000861
fffff3b5
fffffbf4
fffffe16
0000062c
fffffa73
0000073e
fffff8e8
fffff9c7
fffffafd
000002fa
00000564
fffffeb0
0000029d
000003d2
fffffde5
00000898
fffff923
fffffd5b
fffff857
fffffc2e
fffff823
000009f6
fffff759
00000427
000000a5
fffffb34
fffff49e
fffffe3e
0000063b
0000031e
0000080e
000000c0
000002dd
00000521
fffffbd6
fffffd30
fffffa89
00000395
fffffa10
0000042a
fffff5e5
00000299
fffff6f6
00000621
fffffcad
fffffad6
fffff7b3
00000070
fffff6b0
000007d1
0000003c
fffff4ad
fffffe4b
fffff8f7
0000006e
fffffd50
000003b3
fffff63f
fffffce6
fffff3fc
00000030
fffff8a3
fffffb97
fffffe4b
fffff457
000009bf
000002b0
0000002e
fffff8b2
000004cd
fffffe42
0000085c
fffffb05
ffffef04
000000c3
00000223
fffffff4
ffffe9ab
fffff37b
fffff469
00000762
000002c2
0000067c
00000692
00000401
fffffe3c
0000031b
fffff6d7
00001011
00000c59
00000617
fffff72d
fffff209
000000fa
ffffff52
fffff994
fffffb47
fffff9d3
fffffe54
fffffaf1
fffff670
ffffee9f
00000679
00000a53
000002b6
fffff4f9
fffffb14
00000314
ffffeb7e
ffffef34
0000063d
00000576
fffff442
fffffaba
fffffe82
000001d9
ffffff78
00000448
fffffcc0
fffffa96
00000453
fffff87c
fffff0f3
fffffa19
fffff688
0000043a
fffff40d
fffff2ad
fffff8a4
fffffa61
000000f4
000003c2
00000bef
fffff890
fffff5f3
0000025e
0000130d
fffffce2
000007f3
00000f3d
00000983
fffffb81
fffffdfb
fffff6fa
ffffebe2
00000195
000005e7
ffffffd3
fffffdff
fffff795
fffff927
00000a2f
fffffa0f
ffffeeda
000005d9
0000072f
0000009d
fffffeae
000002a2
fffff796
fffffbfb
00000f70
fffffcfd
00000744
00000a3f
000001ea
00000563
00000319
fffffacf
ffffff40
00000493
0000075a
0000036b
fffff9d7
fffffe1a
fffffa4a
000000b7
fffff233
ffffef38
fffffe34
000005a1
0000062c
00000086
ffffff10
fffffe09
fffffb27
fffffb3d
fffffa20
fffffc64
fffff947
000002dd
fffff5c4
fffff855
00000d46
fffffadf
00000492
fffffb05
fffff65e
fffff60c
0000077c
fffffc4a
00000738
fffff7d8
fffff737
fffffc4a
fffff1e1
ffffffe0
fffffdda
fffffe56
fffffe6b
fffff618
fffff346
fffff20d
fffff0e4
fffff9a8
fffff6ee
000002d5
000004e0
fffffd98
fffff743
fffffab9
fffffa62
fffff26e
ffffe8a0
fffff795
fffffa96
fffff2d4
0000079a
00001cfe
00002319
00002128
00000fef
00000609
ffffea08
ffffd977
fffff238
ffffee9f
ffffcfea
ffffd3ae
fffff866
ffffff48
fffff11b
fffffba1
000004c7
fffff738
fffff422
00000754
00000a20
000020a4
00000c46
fffffe6e
fffff56d
00000652
00001545
000001b1
fffffd53
fffff3d8
ffffee43
000013c2
0000102f
00000aae
fffffe37
000013f8
ffffff10
ffffeff3
ffffed10
fffffbba
0000047f
fffffe9f
fffff497
00000560
000008fd
fffff753
00000251
fffff572
00000452
000003c2
fffff718
fffff8f4
ffffeb9c
fffffc1d
fffffd46
00000c96
fffffe82
0000090a
fffffb33
00000348
fffff67f
fffff9e3
fffffedf
0000082d
000001b6
fffffd39
0000010b
fffff99c
000004dc
00000a96
fffff8a6
fffff89a
fffff1a0
fffffad9
0000015f
00000a8b
0000160c
00000341
000000cc
000009f5
fffffb57
fffff7ff
fffff93a
fffff95b
fffff7b0
ffffee56
0000073c
00000bf2
000003bf
fffff82f
fffff1bd
fffff70b
ffffea1d
fffffd8f
fffffe8a
fffffffc
fffff8fd
fffff48b
fffff894
fffffbd7
fffffa4d
00000720
00000809
fffffc09
00000768
fffffce1
fffff592
000001a5
fffff334
00000221
0000068c
fffff622
000007c6
fffffc92
fffffb80
000001a5
fffff227
fffffea6
000008a4
fffff7b9
fffffb44
ffffe6ce
ffffff1e
fffffe82
fffff559
ffffe49c
fffff444
fffff512
ffffface
00000e78
fffffb47
00000a7a
00000ae7
fffff5b4
fffffdc1
0000034c
00000bc0
fffffd37
000002c2
fffff3e1
000003a4
ffffff5d
fffff31e
fffff717
00000229
000006e0
fffffbce
00000223
fffffaf3
fffffbcc
fffff340
fffff1be
000001db
fffffd44
00000317
fffffad1
000000b7
fffff67b
fffff922
fffff39d
fffffcb2
fffffb88
fffffdb1
00000105
fffffcd2
fffff0dc
fffff12f
fffffd5f
000003f9
fffff542
fffff484
ffffef00
fffff9bb
fffffeac
fffff512
fffffd22
ffffee33
0000005e
000000da
fffffe69
fffff9a7
fffff8cc
0000153d
000012f5
ffffede1
00000678
ffffff63
fffffbeb
fffffacd
ffffea54
fffff17a
fffff681
ffffed68
fffff810
fffffb25
fffffdc4
fffff6ca
fffff79d
fffffc37
00000a01
fffffef2
fffff711
fffff6d5
fffff7a0
fffffd36
ffffffca
000005c5
00000034
0000028a
00000676
fffff6d6
fffff5ff
00000488
000005f3
fffffa3a
fffffd47
000002a6
fffffd86
00000449
00000222
0000078d
fffffdc6
0000045e
000004a3
00000bf0
00000502
fffffc62
fffff6cd
fffff6a0
fffffded
00000b62
00000156
fffffee0
fffff7b3
fffff423
fffff242
00000162
fffff7b8
00000643
000010f2
fffff912
00000ce5
000007c0
00000615
fffff291
ffffece3
000000be
00000791
00001295
fffff69b
fffff881
0000017f
00000bc9
000006c5
00000836
fffffbef
fffffd70
000000c7
fffffedd
00000559
fffff920
ffffffdc
ffffff38
fffff997
000005d6
0000013c
00000a68
fffff4c5
fffffd8c
00000747
000004a9
fffff2ea
fffff7a3
fffff9d3
00000a59
ffffedcc
ffffe1fd
fffff31c
00000a57
000011f6
fffffcef
fffff82b
fffff899
000009bd
000002f6
fffffe4b
000007fc
00000f15
00000c3c
00000190
fffffe99
00000573
fffff196
fffff9ec
fffff92d
000002c1
0000024b
0000066f
fffffe83
fffff886
fffff86f
0000045d
fffff8fd
fffff973
00000182
fffff57e
fffff88c
fffffa50
ffffff09
fffffb77
fffff819
fffffa89
fffffb1e
0000054a
000003cc
00000677
000005db
fffff4f2
000001a8
000004b0
000005a7
00000e63
000004d9
ffffe766
fffffa96
00000943
00000185
fffff3dc
ffffe1ed
ffffee6d
ffffe7c9
ffffe1ed
fffff292
0000090e
000003a8
fffffd89
00000327
00001137
00000cb0
00000cf1
ffffff6b
0000139c
0000193a
000015e9
fffffae5
fffffbc4
0000097d
00000cad
fffffa99
ffffec3e
00000115
00000000
00000bde
0000029b
fffffb5a
00000090
000016db
fffff83e
fffff6da
000009f0
00000d13
00000114
ffffec60
fffff2aa
00000274
0000086f
00000279
fffffbcc
fffffd72
ffffff8d
00000730
00000681
fffff8d4
fffffd41
fffffe54
fffffd43
fffffb1c
fffff551
fffff8e9
fffff7f6
00000142
0000043c
fffff9f1
000009ae
fffff759
00000425
fffffeeb
0000039e
0000075a
fffffba0
fffffb24
fffffab1
0000023e
fffff9bf
fffff645
fffffca6
ffffebb3
000005eb
00000ad5
fffff2e3
ffffe229
ffffe62e
fffff1bb
fffff1db
fffffbe7
000000ef
fffff537
0000030c
00000688
00000f04
0000067d
00000a8c
00000e02
00001660
fffff6d2
fffffafd
fffffaf7
00001043
00000d0f
fffffb1b
00000c19
fffffe6c
fffff5bb
0000002b
0000042a
fffff8d3
000006fd
000014f7
00001fab
000003b9
000001aa
00001667
000002a0
fffffb03
fffff9de
00000c57
00000726
fffff042
ffffeec2
fffffb59
000007e4
fffffe4a
fffff562
fffffd67
00000997
000000bd
000003b3
00000193
fffff954
00000547
fffffdb2
fffffe75
fffff721
0000048c
fffffce2
0000035e
fffff7c9
fffff62a
0000070f
fffff5d5
fffff6c6
000007f0
0000016f
00000177
fffffe7e
fffffadf
000006b5
fffff72b
00000399
000004c0
00000663
fffffc33
00000381
fffffda8
fffffb5f
0000016e
fffffcd4
fffff70d
00000510
ffffffeb
fffffa5f
fffff7c0
ffffff96
fffff684
fffff85a
fffff807
ffffef2e
fffff04c
fffffb67
000003ed
fffffa3c
000010cc
000004c5
fffff920
0000009e
fffff6ad
0000037e
000002f1
000001b1
fffff308
fffff66d
ffffffed
0000046f
000005f9
fffffa17
fffffbf4
fffffd57
0000103b
0000049a
fffff65f
00000ba2
000000bb
000003c5
fffff708
fffff5be
fffffe87
000005eb
00000f76
000001f1
ffffe7e2
ffffef61
0000179c
0000073b
0000002f
fffff6d9
000002df
000003c9
000018fc
000002c5
fffffc78
ffffe9ab
ffffff8e
0000043a
fffff92d
fffff942
fffffd83
00000895
fffffa58
ffffe91f
fffffc0b
fffffdb2
00000e18
00000347
fffffcf0
fffffb9f
fffff56b
fffff1fb
00000c7b
00001b49
ffffeae7
ffffe1c0
ffffe97a
000009df
00001343
000009ca
00000865
000001c5
00000b5e
00000671
00000816
000003e2
00000765
000007d0
00000832
ffffffcd
0000099b
0000024c
fffffdea
fffff413
00000ef8
00000910
00000a76
000000e6
fffffa54
00000396
000006f3
00000f6e
fffff09b
fffff248
fffff635
fffff354
ffffef87
00000782
0000001d
000008b0
fffffd10
00000275
00000cc5
00000726
00000771
0000001b
0000075f
00000c57
00000c8c
00000172
fffffa14
fffff564
fffff7d3
fffffd3c
00000302
fffff8a0
0000036a
00000293
ffffff26
000007a1
00000600
fffffd98
00000336
fffff892
00000282
fffffbc0
00000396
fffff977
fffff93b
fffff98a
00000068
ffffffc0
00000495
fffff526
000008bf
fffff39c
fffff214
fffff3a2
000008e2
fffffe45
fffff140
fffff559
fffff97c
fffff3ef
000004d7
00000046
00000bb2
fffffb18
fffff65f
ffffff28
fffff943
0000056f
fffff37f
00000061
000003aa
00000592
ffffeec0
ffffed9c
fffffd8e
fffffff0
00000213
00000095
fffff439
fffffa50
0000018b
00000a67
0000097c
fffffb3f
000006d4
fffffd50
000001c6
00000379
0000069c
fffffdbc
0000059c
fffffd54
000001e1
00000c0f
00000032
fffff8c7
fffff1b2
fffff68e
fffff97d
fffffd6e
fffffadb
00000231
00000ec5
00000bb2
00001138
fffffc0e
fffff01c
000005d4
000007a5
0000108a
000003c6
fffffd30
fffffd39
000004ea
fffff535
00000a07
000003d3
00000608
fffff661
00000505
000003ab
0000036b
fffffe92
00000846
fffff8d0
00000315
0000045d
00000458
fffffd79
fffffb1e
fffffbb5
fffff6d7
fffffcdb
fffff0af
fffff44d
ffffffcd
fffff2c2
ffffffdf
fffffa59
fffff367
00000440
fffff819
ffffee46
fffffea6
fffff43f
fffff956
fffff7b5
fffff74e
ffffff5a
00000430
fffff557
fffffa34
fffff57f
ffffffa7
00000020
fffffe13
000007d5
fffffc20
fffffdc6
ffffee77
fffff7a4
000005cf
fffffe92
00000207
fffff6be
fffff3bd
000006a4
0000066a
fffff2c4
ffffebed
ffffff0a
fffff609
fffff0b7
00000466
fffffda0
000007de
00000c81
fffffe96
fffffe92
fffff779
00000f40
00000652
fffff94f
fffff08f
fffff881
fffff5e2
ffffef5a
fffff7a3
fffff251
ffffffb4
000006dd
00000615
00000c03
00000de9
00001765
00000567
fffff9dc
fffff1fc
00000480
00000c40
fffffdc6
00000636
00000a5d
fffff494
fffff515
00000720
00000660
fffffb24
fffff76c
fffff56f
000007a0
fffff5e9
0000054f
00000fac
000007c1
fffffea1
000006d0
00000805
00000479
00000132
fffff405
fffff61d
fffff2a1
fffff71e
fffffb3a
000000e6
00000349
00000114
0000017b
fffff8ed
fffffbe9
00000bb8
00001c4d
00000955
0000090c
fffffc0b
00000620
000007a7
fffff72e
fffff883
fffff610
0000079a
ffffed8c
ffffe9a4
fffff29c
ffffffd2
fffff30a
ffffff7a
fffff646
00000044
0000053d
fffff7b5
000009ef
fffff566
0000097a
000007f5
0000039b
fffff33a
0000081f
fffffaa5
000001f2
fffff8bd
fffff689
00000155
00000a22
fffffdc1
fffff9ee
fffffc1e
fffffb26
0000008e
000007b9
fffffe67
fffff9e7
fffffd81
000001af
00000043
000006c9
fffff8b7
000005b2
fffffac7
00000694
fffffd25
fffff82e
fffff9a7
fffffa6c
00000610
fffff68f
00000470
000007a6
0000062b
000005d2
ffffffb3
fffff557
fffffed9
fffff73f
00000052
00000132
fffff786
00000884
fffffdd4
fffff32c
fffff5d4
000003b8
00000d07
fffff567
fffff6b0
00001206
00001434
00000406
fffff785
fffffcda
000007c8
00000648
ffffee05
ffffefd1
fffff745
000001cb
fffff751
fffff275
fffff613
fffff8d1
fffff55f
fffffd6b
fffff9df
fffff765
000000b9
fffff6af
fffff7fb
00000849
fffffa15
ffffffae
fffff84d
0000084f
fffff864
000007ec
000004e6
00000457
fffff557
fffffbf0
000001dc
fffff886
fffffe70
fffffdb0
fffffd9f
00000314
fffffb5e
fffff899
fffff7fc
fffff508
fffffe73
fffffff8
ffffe7e6
fffff386
ffffff31
00000788
fffff68c
ffffea34
ffffec0a
0000032c
ffffe9b6
ffffeea5
fffff2e1
fffffab1
fffffc65
00001114
00000779
00000792
0000058e
000013d6
fffffce2
fffff24b
fffffb17
fffffbec
000007d8
0000006d
fffff0ac
ffffede3
00000efc
00002245
000006c1
00000420
00000452
0000088f
0000119a
000012cc
fffffcba
ffffe362
00000157
00000f2b
000007e0
000002d5
00000268
fffff8c2
fffff69e
ffffef57
0000085b
00000f1f
000006ba
000015a0
fffffc08
00000214
fffff702
fffff1bc
fffff6de
00000a5a
00001368
0000162b
00000971
00000256
000002f9
00000c0e
000003e5
fffffdbd
000003e4
fffff806
fffff4ab
fffff4d7
fffff87e
00000ed0
00000fbe
fffff958
00000766
fffff766
fffffd3e
00000931
fffff106
fffff0f5
fffffd89
00000e29
00000bdb
fffff25d
ffffec9d
00000698
00000ffd
00000c24
fffffc7e
fffff9bf
fffffabc
00000878
fffffc8f
00000730
000001ff
00000748
000005dc
ffffff65
00000cde
00000117
fffff9af
00000433
000005e0
ffffffaf
ffffff81
00000b93
fffff9dc
ffffee69
fffff787
00000be0
0000044e
fffffe22
fffff4bd
00000739
000004c7
fffffd20
fffffdcd
ffffffd9
fffffb6b
ffffef10
fffffe3c
00000810
ffffffb1
00000d66
000003c5
000005b7
fffff6eb
000003f8
ffffffba
ffffff71
fffffc7f
000006ca
fffff7a8
fffff888
fffff81c
ffffffb4
00000174
fffff82c
fffff98d
fffffe9c
fffff535
fffffe96
00000175
fffffbd3
000005be
fffff8ba
0000097f
fffff871
fffffc42
fffffb9b
0000068c
fffffc4e
fffff6d8
000007ba
00000c36
fffff5e1
ffffede5
fffff4d6
00000447
000015b5
00000609
fffffdaa
00000d98
fffff935
00000296
00000829
0000054c
fffffd27
fffff920
fffff726
fffff1af
000003b0
fffff2a9
00000c99
00000771
00000cac
fffffe9a
fffff868
fffff391
fffffa1f
00000cdc
00000e3d
fffffb58
00000670
00001249
00000085
00000967
0000054f
fffff59b
ffffe388
00000085
000001f1
fffff8a8
fffff34d
00000502
00000573
fffffc57
fffffb85
fffff540
fffffb2c
fffff930
fffffc3b
fffff161
fffffde0
00001344
00001533
00001168
000013ba
00000bcc
ffffff63
ffffffdf
0000055f
00000337
fffffd6e
000005da
fffff59d
ffffe0b1
fffff6b0
000012cf
000001f3
fffffbaf
fffff9d8
00000bd7
00000b11
00001789
00000530
000012af
00000b01
00000f8a
0000095a
00000f05
fffff890
00000169
00000bf8
00000713
ffffff03
fffffcbf
fffff994
fffff5ee
ffffef0d
ffffe9f2
ffffeeec
fffffd42
fffffbd8
fffffcd9
fffff7fb
000009c2
000014ae
fffff979
fffff90a
000007ce
0000057f
0000083b
000000c4
00000507
000013d0
00000cfb
000007e5
0000047c
000005de
00001805
00001135
000019d7
000006f0
00000311
0000066d
fffffe08
fffff5b6
fffff9e8
fffffdee
fffff80c
ffffefbb
fffff7cf
000006e6
00000239
00000b4e
fffffe5b
00000515
fffffd82
fffff84a
00000068
fffffb24
00000d00
00000401
fffff0f6
ffffee9d
fffff1d3
000002e3
fffff911
fffff8bf
fffffdf2
00000587
000000f0
ffffffbc
0000091f
000001ab
fffffa2c
fffff32f
000005a5
ffffff12
fffffe92
0000068f
00000dbe
00000afb
000004bf
ffffee8a
ffffec1e
0000000d
00000694
fffff62a
fffff6ef
fffff545
fffffafc
fffff879
00000ecb
000005c3
fffffc33
fffff9f4
fffffb31
fffffd26
00000a8b
00000b5b
00000392
00000af9
fffffcc0
00000817
0000072f
fffffcfb
00000828
00000391
fffff9e6
00000495
0000085c
fffff549
000007ef
ffffff25
fffffb9e
fffffc4f
fffffb5e
00000174
fffff80d
fffffa9a
0000093d
fffffdf9
fffff8b4
000006e3
000003bb
000006bd
fffff98a
000001bb
00000f52
000004f9
fffff9ea
fffffc91
00000b7d
fffff920
000005f7
fffff97f
0000023f
00000331
000006cb
00000389
fffff822
00000281
00000084
fffff962
000001b3
00000905
fffff791
00000035
fffff18d
fffff4bb
fffffaae
000006d0
fffffc46
00000883
00000da3
00000757
ffffff8d
fffff68f
00001065
0000178f
0000111d
0000084d
fffff56c
fffff385
000002f5
fffffd43
000000d1
0000054c
fffff9ae
ffffff62
fffffb58
fffffea1
fffff717
fffff91d
fffff9b4
00000416
fffffbdd
00000232
000006dd
00000a92
ffffffbb
00000074
fffff3ec
fffff59d
0000039f
00000500
ffffefdb
fffffbfb
00000093
fffff7d7
ffffeb3a
00000513
fffffd6b
fffff850
fffffd70
fffff5fc
fffffb6d
fffff4b5
fffffac4
000005ee
fffff6be
fffffbe3
0000025a
000005fe
fffffbb7
fffff1d3
000009a4
ffffff27
fffffe9d
ffffff9a
fffffbee
fffff668
ffffffe6
fffff31d
00000322
fffff84a
fffffe5d
0000082e
fffffc3c
00000130
000006ff
000003c1
000007e4
fffff9ec
fffff941
fffffdac
fffffc16
fffffcd9
0000021c
fffff669
fffffa33
00000bd3
000008c0
00000527
fffff6bb
fffff41d
ffffff08
000013d0
00000f3c
000002d6
00000623
fffffbf0
00000a5e
000011a2
fffff785
fffff422
fffff9f6
00000197
fffffc8c
fffff5c6
ffffff82
00000ae5
00001894
000014b3
000001f5
fffff561
fffffdbd
00001300
0000110d
fffff7a0
fffff9ed
0000087f
00000299
000004fe
fffffc73
fffff674
fffffa6f
00000149
00000cd4
fffffde1
fffffc33
00000390
fffff30b
00000468
000004db
000003b9
0000082d
fffffd1e
000019c2
00000933
fffffced
fffffdc8
fffff820
fffff56a
0000064e
0000028c
00000212
00000160
fffffe4c
fffffd28
fffffc96
000004e2
000004ee
fffffe2a
000007ef
fffff683
fffffea4
fffff5ae
fffffa9f
ffffff46
fffffed8
fffffc6f
fffffbd1
00000517
fffffdf8
fffffcf2
00001000
00001267
fffff2bd
00000903
ffffffbe
fffff844
ffffef39
ffffe34a
fffff7a1
00000656
000001f0
00000bf0
000001e2
ffffeb0b
ffffef98
00000631
00000a4e
fffffc7d
000002c1
00000daf
00002194
00001663
00000a43
0000156e
00001556
fffff7e5
fffff153
fffffc92
0000077b
0000103d
00000308
fffffc95
00000050
00000e55
000010f3
0000118c
fffff780
ffffffb9
000010eb
00000e47
fffff2d6
ffffef89
00000365
00000f72
00000b4d
fffff07f
fffff00a
fffffba6
fffffef1
fffff075
fffff6cf
00000a0d
000001c7
00000316
fffff565
ffffff39
000006da
fffffe94
fffff8fa
fffffeec
00000168
ffffed81
ffffed18
ffffff4d
fffffab9
fffff557
00000b39
00000e84
000006e2
000010b8
0000065f
fffffa7e
fffffdfb
00000734
00000d39
00000173
000003bd
fffff1eb
ffffffa3
fffff27a
fffffb40
fffff76c
fffff024
fffff857
000003f6
fffff8c1
fffffe21
00000266
00000286
fffffe5e
fffff7eb
ffffff61
00000451
fffff405
fffffb4c
000000a4
fffff618
00000404
fffff6f3
000005fd
00000380
00000214
fffffe67
fffff736
00000167
ffffff40
ffffffcf
000002e1
fffff34d
fffffb1d
fffff87f
fffff70d
00000962
00000492
fffffc08
fffffaf9
0000041a
fffff9d4
fffffb15
fffffeda
fffff5cb
00000361
fffffb61
fffffc2e
ffffffe9
000006f2
00000638
fffff763
000004ee
000006e8
fffffe94
fffff16d
ffffe927
fffff7ac
00000709
fffff92a
fffff54e
00000636
ffffff3e
0000047d
000004eb
000003ce
fffff890
fffff0c0
00000646
ffffff61
0000077f
ffffffe4
fffff723
fffffbd8
00000b7d
fffff6b0
000000d4
fffffec9
00000470
fffff455
fffff8c7
fffffb48
fffff8b3
ffffedf6
fffffee8
00000087
fffff623
fffffc9e
fffffd9d
00000023
fffffce1
fffff967
fffff90f
fffff91f
fffff5c1
ffffff84
fffff767
000004ab
00000024
00000d2c
00000e45
00000a0c
000001bd
fffff719
00001e5e
000022bd
000011a8
00001b40
00001d2c
000005bf
00000345
000002ec
fffffc34
00000688
fffff26c
ffffe4ec
ffffea8b
fffff423
00000469
000009a3
fffffc33
00000c52
fffffcf5
fffff648
fffffdcc
000007f7
00001526
000000b6
fffff7f0
fffff5b5
000003fa
00000fca
00000832
fffff859
fffff654
fffff2dc
000009d8
00000db9
00000d41
000009c4
00000f14
00000091
fffff5fc
fffff09f
fffff2e8
ffffefea
fffffe7e
000008af
000000bd
fffff6d4
fffff528
00000360
00000c77
00000939
fffff23e
00000226
00001108
000007d3
